<pad>	0
<unk>	0
<s>	0
</s>	0
<mask>	0
en<s>	0
vi<s>	0
<unused0>	0
<unused1>	0
<unused2>	0
0	0
1	-1
2	-2
3	-3
4	-4
5	-5
6	-6
7	-7
8	-8
9	-9
00	-10
01	-11
02	-12
03	-13
04	-14
05	-15
06	-16
07	-17
08	-18
09	-19
10	-20
11	-21
12	-22
13	-23
14	-24
15	-25
16	-26
17	-27
18	-28
19	-29
20	-30
21	-31
22	-32
23	-33
24	-34
25	-35
26	-36
27	-37
28	-38
29	-39
30	-40
31	-41
32	-42
33	-43
34	-44
35	-45
36	-46
37	-47
38	-48
39	-49
40	-50
41	-51
42	-52
43	-53
44	-54
45	-55
46	-56
47	-57
48	-58
49	-59
50	-60
51	-61
52	-62
53	-63
54	-64
55	-65
56	-66
57	-67
58	-68
59	-69
60	-70
61	-71
62	-72
63	-73
64	-74
65	-75
66	-76
67	-77
68	-78
69	-79
70	-80
71	-81
72	-82
73	-83
74	-84
75	-85
76	-86
77	-87
78	-88
79	-89
80	-90
81	-91
82	-92
83	-93
84	-94
85	-95
86	-96
87	-97
88	-98
89	-99
90	-100
91	-101
92	-102
93	-103
94	-104
95	-105
96	-106
97	-107
98	-108
99	-109
▁0	-110
▁1	-111
▁2	-112
▁3	-113
▁4	-114
▁5	-115
▁6	-116
▁7	-117
▁8	-118
▁9	-119
▁00	-120
▁01	-121
▁02	-122
▁03	-123
▁04	-124
▁05	-125
▁06	-126
▁07	-127
▁08	-128
▁09	-129
▁10	-130
▁11	-131
▁12	-132
▁13	-133
▁14	-134
▁15	-135
▁16	-136
▁17	-137
▁18	-138
▁19	-139
▁20	-140
▁21	-141
▁22	-142
▁23	-143
▁24	-144
▁25	-145
▁26	-146
▁27	-147
▁28	-148
▁29	-149
▁30	-150
▁31	-151
▁32	-152
▁33	-153
▁34	-154
▁35	-155
▁36	-156
▁37	-157
▁38	-158
▁39	-159
▁40	-160
▁41	-161
▁42	-162
▁43	-163
▁44	-164
▁45	-165
▁46	-166
▁47	-167
▁48	-168
▁49	-169
▁50	-170
▁51	-171
▁52	-172
▁53	-173
▁54	-174
▁55	-175
▁56	-176
▁57	-177
▁58	-178
▁59	-179
▁60	-180
▁61	-181
▁62	-182
▁63	-183
▁64	-184
▁65	-185
▁66	-186
▁67	-187
▁68	-188
▁69	-189
▁70	-190
▁71	-191
▁72	-192
▁73	-193
▁74	-194
▁75	-195
▁76	-196
▁77	-197
▁78	-198
▁79	-199
▁80	-200
▁81	-201
▁82	-202
▁83	-203
▁84	-204
▁85	-205
▁86	-206
▁87	-207
▁88	-208
▁89	-209
▁90	-210
▁91	-211
▁92	-212
▁93	-213
▁94	-214
▁95	-215
▁96	-216
▁97	-217
▁98	-218
▁99	-219
▁t	-220
ng	-221
▁c	-222
▁th	-223
▁a	-224
▁s	-225
▁,	-226
▁.	-227
▁h	-228
er	-229
▁b	-230
▁n	-231
▁đ	-232
in	-233
▁the	-234
▁m	-235
▁l	-236
▁o	-237
▁w	-238
re	-239
▁v	-240
▁p	-241
nd	-242
▁d	-243
is	-244
at	-245
on	-246
▁ch	-247
it	-248
an	-249
ed	-250
en	-251
or	-252
▁f	-253
▁g	-254
▁k	-255
es	-256
▁T	-257
ing	-258
▁tr	-259
ou	-260
▁to	-261
ar	-262
nh	-263
▁in	-264
▁and	-265
▁of	-266
al	-267
▁nh	-268
as	-269
ch	-270
▁kh	-271
om	-272
▁C	-273
▁I	-274
▁ng	-275
el	-276
▁re	-277
▁ph	-278
ic	-279
il	-280
▁Th	-281
iệ	-282
ion	-283
▁r	-284
▁'	-285
▁S	-286
▁gi	-287
ông	-288
▁N	-289
▁e	-290
ay	-291
qu	-292
ên	-293
ad	-294
▁H	-295
ent	-296
▁B	-297
le	-298
▁A	-299
oo	-300
▁và	-301
ut	-302
▁M	-303
am	-304
st	-305
▁qu	-306
▁-	-307
ot	-308
et	-309
id	-310
▁is	-311
ly	-312
ve	-313
ow	-314
▁on	-315
ác	-316
ct	-317
▁wh	-318
▁be	-319
ong	-320
▁y	-321
▁là	-322
im	-323
▁for	-324
▁st	-325
iế	-326
ườ	-327
▁"	-328
ới	-329
gh	-330
▁x	-331
▁it	-332
uy	-333
ượ	-334
▁củ	-335
▁P	-336
▁was	-337
▁của	-338
▁that	-339
ur	-340
ol	-341
ers	-342
ại	-343
▁L	-344
ất	-345
▁u	-346
▁có	-347
ook	-348
ith	-349
ce	-350
▁The	-351
ir	-352
▁with	-353
▁D	-354
th	-355
▁V	-356
▁an	-357
ver	-358
se	-359
ân	-360
ter	-361
▁as	-362
ro	-363
ình	-364
▁ha	-365
▁G	-366
iề	-367
▁al	-368
▁các	-369
ược	-370
▁(	-371
ld	-372
▁he	-373
▁sh	-374
▁book	-375
ang	-376
ation	-377
ere	-378
▁)	-379
ột	-380
▁được	-381
▁cho	-382
▁you	-383
ul	-384
▁Đ	-385
ill	-386
▁this	-387
ày	-388
▁W	-389
iện	-390
▁con	-391
au	-392
em	-393
▁K	-394
▁R	-395
if	-396
▁trong	-397
iên	-398
▁không	-399
ướ	-400
est	-401
▁với	-402
▁Ch	-403
▁một	-404
ri	-405
ag	-406
ười	-407
inh	-408
▁at	-409
ac	-410
▁his	-411
▁F	-412
iều	-413
ần	-414
▁se	-415
▁do	-416
▁ngh	-417
iể	-418
ak	-419
ore	-420
ành	-421
ain	-422
ường	-423
▁su	-424
ải	-425
▁người	-426
op	-427
▁đã	-428
rom	-429
ươ	-430
ao	-431
▁lo	-432
ew	-433
ững	-434
ght	-435
▁are	-436
us	-437
ist	-438
▁Tr	-439
ương	-440
▁com	-441
and	-442
▁de	-443
▁:	-444
pp	-445
ước	-446
▁E	-447
▁not	-448
ầu	-449
ực	-450
ould	-451
▁by	-452
ức	-453
ản	-454
àn	-455
▁from	-456
▁độ	-457
▁những	-458
▁ex	-459
▁như	-460
ies	-461
ant	-462
àng	-463
ạn	-464
▁her	-465
ến	-466
▁J	-467
art	-468
ận	-469
▁but	-470
anh	-471
ây	-472
ess	-473
▁have	-474
ab	-475
ell	-476
▁ho	-477
ear	-478
ài	-479
ung	-480
▁read	-481
▁O	-482
um	-483
▁để	-484
▁li	-485
ap	-486
ách	-487
res	-488
▁pro	-489
▁nă	-490
ôi	-491
ust	-492
un	-493
ối	-494
ate	-495
▁so	-496
ect	-497
ết	-498
▁ab	-499
ai	-500
ính	-501
▁ra	-502
▁j	-503
out	-504
▁công	-505
▁U	-506
ally	-507
ồng	-508
▁or	-509
iết	-510
▁này	-511
ard	-512
os	-513
ời	-514
ống	-515
ort	-516
ig	-517
án	-518
▁thể	-519
ơn	-520
ùng	-521
ật	-522
ội	-523
át	-524
▁wor	-525
ity	-526
iv	-527
ome	-528
▁từ	-529
ia	-530
▁đó	-531
▁my	-532
act	-533
ăn	-534
ũng	-535
▁khi	-536
iến	-537
ast	-538
▁me	-539
▁đến	-540
all	-541
▁thu	-542
▁Ng	-543
▁họ	-544
ack	-545
iệt	-546
ốc	-547
nt	-548
▁pl	-549
▁has	-550
rou	-551
▁về	-552
▁`	-553
▁Ph	-554
▁Q	-555
▁``	-556
ke	-557
▁who	-558
▁ở	-559
her	-560
▁đị	-561
ight	-562
ment	-563
our	-564
▁i	-565
▁''	-566
ory	-567
▁sa	-568
▁all	-569
▁one	-570
áo	-571
▁she	-572
▁sẽ	-573
▁had	-574
▁cũng	-575
▁tại	-576
▁le	-577
ich	-578
ud	-579
ục	-580
▁sp	-581
▁ne	-582
ive	-583
▁vào	-584
iệc	-585
▁Nh	-586
▁cả	-587
▁we	-588
▁làm	-589
▁mu	-590
end	-591
▁?	-592
▁nhiều	-593
one	-594
ập	-595
▁It	-596
áng	-597
ái	-598
▁trên	-599
ep	-600
▁out	-601
▁năm	-602
ip	-603
ie	-604
ood	-605
▁In	-606
▁hiện	-607
▁int	-608
od	-609
▁about	-610
▁!	-611
iệu	-612
▁việc	-613
ind	-614
ấy	-615
ish	-616
▁were	-617
▁Qu	-618
▁bị	-619
▁they	-620
▁up	-621
ine	-622
are	-623
▁đầu	-624
▁nhà	-625
▁sự	-626
ure	-627
▁more	-628
▁lại	-629
êu	-630
ost	-631
ide	-632
▁;	-633
rit	-634
reat	-635
ous	-636
▁can	-637
▁bạn	-638
oc	-639
▁will	-640
▁số	-641
▁động	-642
ond	-643
ượng	-644
▁chỉ	-645
▁tim	-646
av	-647
ăng	-648
▁quy	-649
▁mà	-650
ame	-651
▁hàng	-652
ice	-653
▁nước	-654
▁phải	-655
▁their	-656
òng	-657
ấp	-658
ber	-659
ach	-660
▁would	-661
▁said	-662
ổi	-663
▁thành	-664
▁ag	-665
▁ad	-666
ảo	-667
own	-668
ial	-669
▁đồng	-670
òn	-671
▁man	-672
▁cl	-673
ằng	-674
▁en	-675
ộc	-676
ions	-677
▁ngày	-678
âm	-679
ào	-680
▁comp	-681
ạo	-682
▁go	-683
▁This	-684
úng	-685
ov	-686
ther	-687
ạt	-688
ích	-689
ian	-690
ra	-691
iểm	-692
▁St	-693
ụng	-694
▁year	-695
▁giá	-696
▁định	-697
▁quan	-698
▁Y	-699
age	-700
▁which	-701
uyên	-702
ary	-703
ưa	-704
ery	-705
ec	-706
▁kn	-707
ấn	-708
ắc	-709
▁thì	-710
ated	-711
ire	-712
ền	-713
▁nhất	-714
ff	-715
áp	-716
ven	-717
oy	-718
ely	-719
ặc	-720
so	-721
▁exp	-722
▁nhân	-723
ặt	-724
▁chính	-725
ry	-726
▁học	-727
ánh	-728
▁nó	-729
▁what	-730
ẫn	-731
ake	-732
ảng	-733
ịch	-734
▁story	-735
▁like	-736
▁un	-737
og	-738
▁hơn	-739
▁dụng	-740
▁tiế	-741
▁gia	-742
ợp	-743
▁dự	-744
▁xu	-745
ue	-746
▁rec	-747
úc	-748
irst	-749
âu	-750
▁been	-751
pt	-752
ễn	-753
ôn	-754
▁ser	-755
▁off	-756
▁Nam	-757
▁Kh	-758
▁us	-759
▁bec	-760
▁some	-761
▁em	-762
ứng	-763
▁hợp	-764
▁He	-765
▁tôi	-766
ub	-767
▁cơ	-768
▁trường	-769
▁còn	-770
▁thời	-771
ưở	-772
fter	-773
▁đề	-774
uyệ	-775
▁tw	-776
iển	-777
▁nghiệ	-778
▁kho	-779
▁just	-780
▁pr	-781
ưởng	-782
▁them	-783
▁im	-784
▁cont	-785
ound	-786
▁when	-787
▁thực	-788
▁time	-789
▁first	-790
▁him	-791
▁đi	-792
cc	-793
ắt	-794
ick	-795
▁into	-796
▁sản	-797
ite	-798
ass	-799
iz	-800
▁char	-801
ence	-802
▁ar	-803
ans	-804
▁also	-805
able	-806
▁over	-807
▁điều	-808
▁Việt	-809
ge	-810
▁theo	-811
ical	-812
ib	-813
▁there	-814
ail	-815
ays	-816
▁ông	-817
▁cao	-818
▁new	-819
▁cu	-820
iền	-821
▁thông	-822
▁per	-823
▁its	-824
▁rất	-825
▁than	-826
▁dis	-827
▁inter	-828
▁sau	-829
ace	-830
ile	-831
▁how	-832
▁mình	-833
▁any	-834
▁inc	-835
▁sinh	-836
ink	-837
orm	-838
▁get	-839
▁nhưng	-840
ings	-841
▁nên	-842
êm	-843
ance	-844
▁other	-845
int	-846
ord	-847
ations	-848
ốn	-849
ạnh	-850
▁mới	-851
▁biết	-852
▁part	-853
▁lu	-854
ơi	-855
ough	-856
▁đang	-857
▁did	-858
ict	-859
mer	-860
▁work	-861
ru	-862
▁vụ	-863
ữa	-864
▁hành	-865
ark	-866
▁writ	-867
▁dân	-868
▁thế	-869
▁te	-870
▁phát	-871
oll	-872
▁could	-873
ẩm	-874
ree	-875
▁am	-876
▁Sh	-877
ếu	-878
▁di	-879
▁hình	-880
▁viên	-881
▁ever	-882
áy	-883
▁cùng	-884
ose	-885
▁lý	-886
ồi	-887
▁pre	-888
ild	-889
▁very	-890
▁sc	-891
▁trình	-892
sp	-893
▁pe	-894
▁qua	-895
ult	-896
ife	-897
ved	-898
ens	-899
▁sử	-900
uth	-901
ốt	-902
ount	-903
uyện	-904
▁if	-905
▁app	-906
itt	-907
▁nhận	-908
▁after	-909
iểu	-910
▁cách	-911
▁lượng	-912
ấu	-913
igh	-914
ob	-915
ful	-916
ade	-917
▁your	-918
▁charact	-919
ọng	-920
ress	-921
▁Al	-922
▁tin	-923
nder	-924
▁well	-925
▁Wh	-926
▁gr	-927
▁two	-928
▁good	-929
per	-930
▁bu	-931
▁lên	-932
▁đối	-933
▁nghiệp	-934
▁no	-935
ạng	-936
ents	-937
▁tổ	-938
wn	-939
▁lớ	-940
▁bộ	-941
▁cấp	-942
▁%	-943
iêu	-944
ảm	-945
▁xuất	-946
ors	-947
▁tế	-948
▁tu	-949
▁hội	-950
urn	-951
▁bet	-952
▁tư	-953
▁end	-954
▁Gi	-955
rough	-956
ious	-957
▁khác	-958
▁trước	-959
▁năng	-960
▁want	-961
▁back	-962
▁only	-963
▁chức	-964
ople	-965
uc	-966
other	-967
▁vi	-968
▁great	-969
▁X	-970
fer	-971
▁fe	-972
ause	-973
▁rep	-974
ign	-975
amp	-976
▁ty	-977
▁know	-978
▁đây	-979
▁điểm	-980
ase	-981
▁hel	-982
ft	-983
elf	-984
▁tiếp	-985
▁chúng	-986
▁..	-987
▁tác	-988
▁through	-989
ition	-990
▁kết	-991
▁des	-992
ệnh	-993
▁xe	-994
ne	-995
▁vì	-996
old	-997
óa	-998
▁khách	-999
ction	-1000
hing	-1001
▁kinh	-1002
▁people	-1003
▁/	-1004
▁anh	-1005
▁đường	-1006
▁ta	-1007
▁too	-1008
▁br	-1009
▁thị	-1010
▁cầu	-1011
▁under	-1012
▁cần	-1013
▁look	-1014
xt	-1015
▁tình	-1016
▁nay	-1017
▁co	-1018
ath	-1019
▁auth	-1020
ves	-1021
▁tăng	-1022
▁love	-1023
ảnh	-1024
▁bảo	-1025
▁toàn	-1026
▁tự	-1027
▁...	-1028
▁nói	-1029
▁much	-1030
ily	-1031
▁đo	-1032
▁ngo	-1033
▁bl	-1034
▁chủ	-1035
▁el	-1036
ướng	-1037
▁tâm	-1038
▁gian	-1039
ten	-1040
we	-1041
ạch	-1042
▁every	-1043
▁phẩm	-1044
ater	-1045
▁tới	-1046
oint	-1047
▁chất	-1048
▁most	-1049
▁giải	-1050
les	-1051
▁fin	-1052
iss	-1053
▁down	-1054
▁again	-1055
▁life	-1056
▁An	-1057
▁mặt	-1058
▁many	-1059
▁books	-1060
▁máy	-1061
▁vị	-1062
▁tạo	-1063
▁att	-1064
ạm	-1065
ates	-1066
▁way	-1067
▁thấy	-1068
▁nào	-1069
▁vẫn	-1070
óng	-1071
út	-1072
ắng	-1073
▁khu	-1074
ving	-1075
▁Quốc	-1076
form	-1077
▁really	-1078
ỉnh	-1079
ừa	-1080
ọn	-1081
▁hay	-1082
ậy	-1083
▁because	-1084
ắn	-1085
▁Công	-1086
▁án	-1087
oth	-1088
ển	-1089
ks	-1090
ọi	-1091
▁lớn	-1092
anc	-1093
▁imp	-1094
▁hai	-1095
▁bằng	-1096
ning	-1097
▁nhiên	-1098
▁As	-1099
▁phần	-1100
▁res	-1101
▁fl	-1102
▁rel	-1103
▁sec	-1104
▁triển	-1105
▁then	-1106
▁doanh	-1107
round	-1108
▁Re	-1109
▁even	-1110
▁Un	-1111
▁see	-1112
ward	-1113
ool	-1114
▁tháng	-1115
▁may	-1116
▁quả	-1117
man	-1118
▁years	-1119
úp	-1120
ồn	-1121
vel	-1122
ons	-1123
▁thủ	-1124
lud	-1125
▁thiết	-1126
uyển	-1127
▁Trung	-1128
▁bản	-1129
▁ý	-1130
▁giới	-1131
▁phòng	-1132
aw	-1133
omm	-1134
▁hiệu	-1135
▁tiền	-1136
▁tính	-1137
▁lực	-1138
▁cứ	-1139
fore	-1140
ỗi	-1141
▁cuộc	-1142
▁báo	-1143
▁phí	-1144
▁thường	-1145
ubl	-1146
gin	-1147
▁think	-1148
▁series	-1149
ought	-1150
iệm	-1151
▁hệ	-1152
▁author	-1153
ert	-1154
▁pháp	-1155
ạc	-1156
▁acc	-1157
▁where	-1158
▁act	-1159
▁high	-1160
enc	-1161
ửa	-1162
▁Hà	-1163
ual	-1164
▁play	-1165
ộng	-1166
▁fam	-1167
▁loại	-1168
▁rằng	-1169
▁sm	-1170
▁giúp	-1171
▁đại	-1172
▁help	-1173
▁xã	-1174
▁found	-1175
az	-1176
▁ảnh	-1177
▁thống	-1178
▁tốt	-1179
▁includ	-1180
▁made	-1181
▁now	-1182
ited	-1183
▁start	-1184
ren	-1185
ating	-1186
▁dec	-1187
▁reading	-1188
▁characters	-1189
▁comm	-1190
▁need	-1191
ỏi	-1192
ưu	-1193
▁pers	-1194
ident	-1195
ting	-1196
ăm	-1197
▁rem	-1198
▁does	-1199
▁Ho	-1200
▁trọng	-1201
ked	-1202
vi	-1203
ased	-1204
▁own	-1205
▁chiế	-1206
red	-1207
ational	-1208
▁tập	-1209
▁bệnh	-1210
ợi	-1211
▁world	-1212
▁Trong	-1213
ọc	-1214
▁trị	-1215
day	-1216
▁điện	-1217
▁giao	-1218
▁our	-1219
▁thức	-1220
▁tài	-1221
joy	-1222
▁quá	-1223
▁inv	-1224
uyền	-1225
▁sống	-1226
▁phương	-1227
▁dif	-1228
▁bán	-1229
▁But	-1230
▁ban	-1231
▁chưa	-1232
▁quốc	-1233
▁yêu	-1234
ám	-1235
ied	-1236
▁địa	-1237
ởi	-1238
▁tỉnh	-1239
▁being	-1240
▁make	-1241
ưng	-1242
▁before	-1243
▁liên	-1244
▁long	-1245
ẩn	-1246
▁ăn	-1247
▁tiêu	-1248
led	-1249
▁find	-1250
land	-1251
▁lần	-1252
▁thi	-1253
hip	-1254
▁chị	-1255
▁enjoy	-1256
▁hoạt	-1257
▁Bộ	-1258
▁New	-1259
▁pol	-1260
▁Ar	-1261
ove	-1262
▁interest	-1263
ince	-1264
▁thương	-1265
▁hoặc	-1266
▁ev	-1267
ise	-1268
▁hóa	-1269
uring	-1270
▁cô	-1271
way	-1272
▁dùng	-1273
▁col	-1274
ầm	-1275
uyễn	-1276
▁real	-1277
▁quyết	-1278
▁say	-1279
▁ind	-1280
▁tra	-1281
meric	-1282
▁these	-1283
ìm	-1284
ah	-1285
▁str	-1286
▁kế	-1287
▁trở	-1288
▁cảm	-1289
ẹp	-1290
▁dư	-1291
ather	-1292
▁bel	-1293
▁som	-1294
ẳng	-1295
▁Theo	-1296
▁sur	-1297
ừng	-1298
▁Americ	-1299
aking	-1300
▁ke	-1301
▁ent	-1302
▁dịch	-1303
▁pres	-1304
▁Nguyễn	-1305
ph	-1306
ittle	-1307
▁Mỹ	-1308
▁cons	-1309
▁vậy	-1310
▁đất	-1311
▁Le	-1312
▁add	-1313
▁old	-1314
▁And	-1315
▁chu	-1316
ss	-1317
view	-1318
▁biệt	-1319
▁cr	-1320
▁khó	-1321
▁&	-1322
▁đơn	-1323
▁gì	-1324
ars	-1325
▁set	-1326
▁last	-1327
ty	-1328
ble	-1329
▁tham	-1330
ock	-1331
ered	-1332
▁show	-1333
▁trung	-1334
akes	-1335
▁đạo	-1336
▁such	-1337
orn	-1338
▁mang	-1339
▁đều	-1340
▁sub	-1341
ics	-1342
òa	-1343
▁trang	-1344
▁dựng	-1345
▁ear	-1346
▁sch	-1347
▁def	-1348
ont	-1349
▁diễn	-1350
▁She	-1351
▁put	-1352
▁vấn	-1353
▁We	-1354
▁vực	-1355
▁ac	-1356
▁those	-1357
▁mua	-1358
▁tho	-1359
tern	-1360
ậu	-1361
▁tục	-1362
▁sở	-1363
let	-1364
ween	-1365
▁feel	-1366
arch	-1367
▁hoàn	-1368
ull	-1369
▁child	-1370
▁tích	-1371
▁little	-1372
riend	-1373
▁right	-1374
ope	-1375
▁reg	-1376
▁giảm	-1377
ms	-1378
▁while	-1379
air	-1380
ram	-1381
▁đưa	-1382
du	-1383
▁$	-1384
▁sl	-1385
▁still	-1386
▁stud	-1387
get	-1388
▁muốn	-1389
▁ngoài	-1390
▁tuổi	-1391
gan	-1392
▁bất	-1393
▁happ	-1394
▁tay	-1395
ằm	-1396
▁chế	-1397
▁hand	-1398
▁should	-1399
als	-1400
ollow	-1401
▁chọn	-1402
▁giờ	-1403
iếu	-1404
▁nhau	-1405
▁between	-1406
▁tìm	-1407
ave	-1408
▁mạnh	-1409
▁xây	-1410
▁gen	-1411
atch	-1412
▁đẹp	-1413
▁đổi	-1414
▁op	-1415
ever	-1416
▁Anh	-1417
▁triệu	-1418
▁ro	-1419
▁person	-1420
pl	-1421
▁đội	-1422
ale	-1423
rib	-1424
ép	-1425
iet	-1426
▁call	-1427
olog	-1428
ét	-1429
▁next	-1430
▁bên	-1431
▁văn	-1432
▁nghĩ	-1433
▁Nội	-1434
oh	-1435
▁vừa	-1436
gg	-1437
▁sĩ	-1438
▁gần	-1439
▁sáng	-1440
▁mon	-1441
▁det	-1442
▁chuyển	-1443
▁three	-1444
ix	-1445
▁publ	-1446
▁thứ	-1447
▁There	-1448
ures	-1449
▁ve	-1450
▁somet	-1451
ected	-1452
ier	-1453
ason	-1454
▁đình	-1455
▁quyền	-1456
ible	-1457
▁trẻ	-1458
ities	-1459
▁lead	-1460
ouse	-1461
▁US	-1462
und	-1463
ầy	-1464
▁thêm	-1465
▁khoảng	-1466
▁gu	-1467
▁De	-1468
▁bắt	-1469
▁lã	-1470
▁chiến	-1471
vern	-1472
▁ứng	-1473
▁turn	-1474
ative	-1475
▁pos	-1476
▁ret	-1477
▁never	-1478
▁supp	-1479
ues	-1480
ually	-1481
▁hist	-1482
▁TP	-1483
▁dẫn	-1484
ished	-1485
▁mem	-1486
ower	-1487
▁don	-1488
▁sim	-1489
▁bao	-1490
▁each	-1491
▁both	-1492
ines	-1493
▁hộ	-1494
óc	-1495
▁point	-1496
▁Tuy	-1497
▁khai	-1498
▁phố	-1499
▁family	-1500
▁đánh	-1501
▁going	-1502
▁follow	-1503
▁day	-1504
▁nếu	-1505
io	-1506
▁cent	-1507
▁ass	-1508
▁If	-1509
ash	-1510
ank	-1511
▁wom	-1512
▁count	-1513
▁tiếng	-1514
▁đặc	-1515
▁differ	-1516
ages	-1517
ổng	-1518
▁kiến	-1519
▁ed	-1520
▁trưởng	-1521
▁trí	-1522
▁chuyên	-1523
▁tỷ	-1524
▁inst	-1525
▁sức	-1526
▁use	-1527
ists	-1528
▁best	-1529
ork	-1530
ular	-1531
any	-1532
▁thân	-1533
ấm	-1534
▁disc	-1535
▁second	-1536
▁car	-1537
ange	-1538
▁mức	-1539
▁nghệ	-1540
oun	-1541
▁tượng	-1542
▁friend	-1543
▁thought	-1544
ivers	-1545
son	-1546
self	-1547
▁Sp	-1548
ắm	-1549
▁cái	-1550
uyến	-1551
▁diện	-1552
▁gây	-1553
▁Cl	-1554
ặp	-1555
▁khiến	-1556
▁gh	-1557
▁rồi	-1558
roup	-1559
▁written	-1560
▁thuộc	-1561
▁phục	-1562
att	-1563
▁prov	-1564
▁sát	-1565
▁lập	-1566
▁bàn	-1567
▁min	-1568
▁around	-1569
▁Văn	-1570
ject	-1571
▁seem	-1572
▁ins	-1573
ee	-1574
▁kỳ	-1575
ảy	-1576
thing	-1577
▁eas	-1578
cept	-1579
▁sách	-1580
▁take	-1581
▁liệu	-1582
ific	-1583
▁Các	-1584
der	-1585
▁hướng	-1586
▁vật	-1587
▁bà	-1588
▁chi	-1589
▁mov	-1590
▁On	-1591
▁another	-1592
▁nhiệm	-1593
ommend	-1594
▁nov	-1595
▁chí	-1596
ories	-1597
▁head	-1598
ìn	-1599
▁ter	-1600
▁nơi	-1601
▁used	-1602
▁Br	-1603
▁war	-1604
outh	-1605
▁bình	-1606
▁gl	-1607
▁cứu	-1608
its	-1609
▁keep	-1610
▁trợ	-1611
▁loc	-1612
ared	-1613
ense	-1614
▁lot	-1615
ặng	-1616
ner	-1617
aph	-1618
ND	-1619
ắp	-1620
▁recommend	-1621
▁few	-1622
▁hết	-1623
▁lợi	-1624
▁nam	-1625
▁belie	-1626
velop	-1627
▁từng	-1628
▁Z	-1629
▁same	-1630
▁Sau	-1631
▁mọi	-1632
▁ca	-1633
ying	-1634
▁Fr	-1635
ret	-1636
▁chiếc	-1637
▁vệ	-1638
▁sy	-1639
▁kiểm	-1640
up	-1641
ton	-1642
▁ma	-1643
▁wee	-1644
▁Mr	-1645
▁since	-1646
▁tiên	-1647
▁cá	-1648
▁giữa	-1649
apt	-1650
rist	-1651
illion	-1652
▁cảnh	-1653
▁novel	-1654
▁truyền	-1655
ĩnh	-1656
▁lúc	-1657
▁lời	-1658
▁hum	-1659
▁chứng	-1660
▁cáo	-1661
ạy	-1662
▁My	-1663
ôm	-1664
▁biến	-1665
▁hard	-1666
▁nguyên	-1667
▁luôn	-1668
▁đấu	-1669
▁fun	-1670
▁nội	-1671
▁review	-1672
▁nhập	-1673
▁thay	-1674
▁adv	-1675
▁nhỏ	-1676
ern	-1677
▁nữ	-1678
▁school	-1679
▁quản	-1680
ric	-1681
▁exc	-1682
▁during	-1683
▁lịch	-1684
ait	-1685
▁phụ	-1686
▁against	-1687
▁art	-1688
àu	-1689
iness	-1690
▁sao	-1691
▁ngay	-1692
▁govern	-1693
eral	-1694
ít	-1695
▁tiến	-1696
ina	-1697
▁du	-1698
▁giáo	-1699
▁unt	-1700
▁got	-1701
▁tên	-1702
▁bỏ	-1703
▁home	-1704
▁run	-1705
▁Is	-1706
ele	-1707
▁quân	-1708
▁thuật	-1709
▁xem	-1710
king	-1711
▁inform	-1712
▁bố	-1713
▁ob	-1714
▁kiện	-1715
▁đặt	-1716
stand	-1717
iel	-1718
▁Bình	-1719
augh	-1720
pr	-1721
▁spec	-1722
▁thích	-1723
▁bus	-1724
▁hã	-1725
urch	-1726
▁bài	-1727
▁cour	-1728
▁They	-1729
▁huyện	-1730
▁mẹ	-1731
▁better	-1732
ision	-1733
▁report	-1734
ets	-1735
▁phân	-1736
▁develop	-1737
read	-1738
ened	-1739
▁You	-1740
▁thanh	-1741
▁For	-1742
▁care	-1743
ience	-1744
▁cổ	-1745
▁mỗi	-1746
▁different	-1747
▁form	-1748
uss	-1749
▁tiết	-1750
▁things	-1751
ness	-1752
▁da	-1753
▁num	-1754
▁đoàn	-1755
▁chung	-1756
▁here	-1757
ote	-1758
▁fr	-1759
ional	-1760
ime	-1761
▁đạt	-1762
▁cung	-1763
ways	-1764
ement	-1765
▁until	-1766
▁dài	-1767
▁mắt	-1768
▁main	-1769
▁đủ	-1770
ys	-1771
ially	-1772
▁ext	-1773
▁something	-1774
▁offic	-1775
ẫu	-1776
▁expl	-1777
ments	-1778
▁four	-1779
▁cle	-1780
▁lear	-1781
▁Ngh	-1782
▁Một	-1783
ross	-1784
ept	-1785
app	-1786
line	-1787
▁character	-1788
êng	-1789
▁How	-1790
▁lar	-1791
▁come	-1792
▁conf	-1793
▁xử	-1794
▁dep	-1795
▁màu	-1796
ling	-1797
▁conc	-1798
▁far	-1799
▁At	-1800
▁xác	-1801
▁giữ	-1802
ism	-1803
áu	-1804
oot	-1805
▁nữa	-1806
▁nhanh	-1807
▁bởi	-1808
ex	-1809
▁phạm	-1810
ựa	-1811
▁Mar	-1812
orth	-1813
▁tal	-1814
ữu	-1815
▁Ô	-1816
▁cur	-1817
ead	-1818
▁American	-1819
▁trans	-1820
▁ngành	-1821
▁Ind	-1822
ug	-1823
▁mark	-1824
▁tử	-1825
▁Bl	-1826
▁top	-1827
▁fact	-1828
uồn	-1829
▁vô	-1830
▁month	-1831
▁biểu	-1832
ann	-1833
▁eff	-1834
▁Thanh	-1835
▁tranh	-1836
▁cư	-1837
▁contin	-1838
▁left	-1839
▁fil	-1840
ush	-1841
istr	-1842
▁team	-1843
ene	-1844
▁nghị	-1845
ùa	-1846
ertain	-1847
▁luật	-1848
▁Chính	-1849
elt	-1850
▁Đại	-1851
▁Nếu	-1852
▁tell	-1853
óm	-1854
▁let	-1855
▁đảm	-1856
ute	-1857
▁class	-1858
▁chuyện	-1859
▁desc	-1860
ral	-1861
▁med	-1862
▁chơi	-1863
▁place	-1864
▁group	-1865
▁mục	-1866
over	-1867
▁away	-1868
▁contr	-1869
▁colle	-1870
▁phủ	-1871
▁mod	-1872
▁bay	-1873
▁hạn	-1874
▁rele	-1875
▁rõ	-1876
▁gặp	-1877
▁game	-1878
▁ri	-1879
▁sever	-1880
ple	-1881
▁Joh	-1882
▁Christ	-1883
▁Be	-1884
▁cửa	-1885
ized	-1886
▁dễ	-1887
▁small	-1888
ượt	-1889
▁gó	-1890
▁didn	-1891
▁tổng	-1892
ility	-1893
▁though	-1894
ames	-1895
ices	-1896
ird	-1897
▁es	-1898
▁bé	-1899
▁dire	-1900
enn	-1901
▁mar	-1902
alth	-1903
ama	-1904
raph	-1905
▁nghiệm	-1906
▁ref	-1907
▁mạng	-1908
ient	-1909
▁Nhà	-1910
▁khả	-1911
▁produ	-1912
▁Minh	-1913
ced	-1914
duc	-1915
▁young	-1916
▁bóng	-1917
ately	-1918
▁trận	-1919
▁khí	-1920
▁Tổng	-1921
ised	-1922
ention	-1923
▁chuẩn	-1924
▁Sc	-1925
▁loved	-1926
▁must	-1927
▁mất	-1928
▁đời	-1929
con	-1930
ined	-1931
▁Ông	-1932
▁government	-1933
▁wait	-1934
ik	-1935
▁tinh	-1936
▁hỗ	-1937
ane	-1938
▁vùng	-1939
ứa	-1940
▁understand	-1941
ẩu	-1942
▁without	-1943
▁ký	-1944
▁always	-1945
▁later	-1946
arr	-1947
▁including	-1948
ok	-1949
▁begin	-1950
▁met	-1951
▁times	-1952
▁word	-1953
ained	-1954
ury	-1955
▁exper	-1956
▁nguồn	-1957
▁sk	-1958
▁chia	-1959
▁vu	-1960
ín	-1961
ox	-1962
▁win	-1963
▁Con	-1964
iêm	-1965
▁Do	-1966
▁sign	-1967
ley	-1968
ired	-1969
▁del	-1970
ains	-1971
▁John	-1972
ces	-1973
▁mở	-1974
▁trực	-1975
▁rece	-1976
▁took	-1977
▁hưởng	-1978
▁tương	-1979
▁hoạch	-1980
ott	-1981
▁Ngo	-1982
▁tất	-1983
onder	-1984
▁children	-1985
ỡng	-1986
▁sang	-1987
▁chương	-1988
▁resp	-1989
▁nổi	-1990
▁Thủ	-1991
▁vốn	-1992
▁give	-1993
▁sắc	-1994
▁giả	-1995
▁thật	-1996
ister	-1997
▁yếu	-1998
▁enough	-1999
med	-2000
▁prog	-2001
▁near	-2002
▁ey	-2003
▁Khi	-2004
▁prof	-2005
ody	-2006
ãi	-2007
▁cạnh	-2008
▁căn	-2009
▁lòng	-2010
▁dưới	-2011
▁writing	-2012
▁enjoyed	-2013
▁heart	-2014
▁đúng	-2015
▁nhìn	-2016
▁chống	-2017
▁big	-2018
ows	-2019
▁dù	-2020
▁cây	-2021
▁pass	-2022
▁Với	-2023
ậm	-2024
▁Những	-2025
▁biển	-2026
▁chân	-2027
▁bit	-2028
▁information	-2029
ồm	-2030
ection	-2031
▁rest	-2032
âng	-2033
▁hoa	-2034
▁Eng	-2035
ital	-2036
▁ấy	-2037
▁áp	-2038
▁pop	-2039
▁ít	-2040
uyết	-2041
osed	-2042
▁phía	-2043
▁ai	-2044
▁business	-2045
▁vận	-2046
▁ké	-2047
▁kill	-2048
▁gọi	-2049
cent	-2050
ature	-2051
▁hỏi	-2052
▁hiểu	-2053
▁history	-2054
rew	-2055
vers	-2056
ution	-2057
▁Đức	-2058
▁phong	-2059
▁stories	-2060
▁looking	-2061
▁why	-2062
▁mil	-2063
▁ide	-2064
▁trả	-2065
▁interesting	-2066
▁lấy	-2067
▁Ad	-2068
ides	-2069
▁càng	-2070
▁All	-2071
▁iss	-2072
▁United	-2073
▁Chủ	-2074
▁several	-2075
▁Tôi	-2076
▁viện	-2077
▁Am	-2078
▁tịch	-2079
▁khá	-2080
▁build	-2081
▁minh	-2082
▁xuống	-2083
▁told	-2084
▁came	-2085
▁cuối	-2086
▁danh	-2087
▁along	-2088
▁law	-2089
ically	-2090
▁hữu	-2091
br	-2092
▁nhu	-2093
▁So	-2094
▁inf	-2095
▁support	-2096
ield	-2097
ided	-2098
▁Thị	-2099
cess	-2100
bers	-2101
▁po	-2102
▁polit	-2103
▁job	-2104
stem	-2105
imes	-2106
▁Hội	-2107
▁gồm	-2108
ese	-2109
▁less	-2110
▁stand	-2111
▁đồ	-2112
▁cố	-2113
▁past	-2114
▁trạng	-2115
els	-2116
▁invest	-2117
ize	-2118
▁known	-2119
▁short	-2120
▁wr	-2121
▁kể	-2122
▁quest	-2123
▁phim	-2124
▁Col	-2125
ived	-2126
ts	-2127
▁men	-2128
▁won	-2129
▁kỹ	-2130
be	-2131
▁Pr	-2132
thers	-2133
▁hồ	-2134
▁ann	-2135
▁creat	-2136
▁lưu	-2137
▁proble	-2138
▁Pro	-2139
▁beh	-2140
▁might	-2141
▁public	-2142
ps	-2143
aut	-2144
▁rộng	-2145
▁đầy	-2146
ney	-2147
▁cụ	-2148
▁khẩu	-2149
▁power	-2150
▁tối	-2151
oney	-2152
less	-2153
▁makes	-2154
▁toget	-2155
▁called	-2156
▁Wor	-2157
▁Can	-2158
▁together	-2159
▁sân	-2160
arent	-2161
▁cực	-2162
▁news	-2163
iệp	-2164
ếp	-2165
▁dr	-2166
▁detail	-2167
erv	-2168
ants	-2169
▁_	-2170
▁câu	-2171
erg	-2172
ll	-2173
▁direct	-2174
uyệt	-2175
▁Ob	-2176
▁list	-2177
▁miss	-2178
▁wonder	-2179
▁return	-2180
▁thư	-2181
▁Có	-2182
iếm	-2183
ably	-2184
▁easy	-2185
▁prev	-2186
ins	-2187
▁complet	-2188
▁learn	-2189
▁After	-2190
▁Hải	-2191
ember	-2192
▁open	-2193
▁Không	-2194
▁Car	-2195
▁state	-2196
▁fav	-2197
▁thuốc	-2198
▁vàng	-2199
ology	-2200
▁partic	-2201
rl	-2202
iversity	-2203
▁Đông	-2204
▁night	-2205
▁prot	-2206
▁nghĩa	-2207
▁Thành	-2208
▁Ban	-2209
pped	-2210
▁đoạn	-2211
alf	-2212
▁song	-2213
chn	-2214
▁Brit	-2215
iver	-2216
▁sure	-2217
▁Nhưng	-2218
▁khoa	-2219
▁others	-2220
▁đáng	-2221
▁serv	-2222
conom	-2223
▁mus	-2224
min	-2225
▁dem	-2226
▁cover	-2227
▁When	-2228
uly	-2229
▁TH	-2230
▁bre	-2231
▁air	-2232
▁appro	-2233
ck	-2234
▁sing	-2235
▁sex	-2236
▁vis	-2237
▁est	-2238
rem	-2239
▁gái	-2240
▁million	-2241
▁Lu	-2242
▁full	-2243
▁girl	-2244
CM	-2245
▁number	-2246
▁ori	-2247
jor	-2248
▁dung	-2249
▁import	-2250
▁leg	-2251
▁felt	-2252
▁dục	-2253
▁His	-2254
▁Đây	-2255
▁mẫu	-2256
ural	-2257
▁Sch	-2258
▁đá	-2259
▁đa	-2260
▁lãnh	-2261
▁pri	-2262
▁Gr	-2263
▁kind	-2264
rent	-2265
mber	-2266
▁country	-2267
▁sw	-2268
▁view	-2269
▁May	-2270
atter	-2271
ering	-2272
▁Mc	-2273
▁line	-2274
▁poss	-2275
▁quý	-2276
▁phép	-2277
▁season	-2278
▁ba	-2279
▁riêng	-2280
▁One	-2281
▁percent	-2282
most	-2283
▁tiện	-2284
▁Bắc	-2285
▁week	-2286
▁system	-2287
▁anyone	-2288
ịp	-2289
▁typ	-2290
▁tố	-2291
▁stru	-2292
▁nâng	-2293
ats	-2294
▁lệ	-2295
▁eng	-2296
▁prom	-2297
▁vợ	-2298
▁record	-2299
▁World	-2300
▁lao	-2301
though	-2302
▁early	-2303
▁xảy	-2304
▁khăn	-2305
▁đăng	-2306
ences	-2307
ober	-2308
▁friends	-2309
▁nạn	-2310
▁tưởng	-2311
▁Hoàng	-2312
ives	-2313
▁đóng	-2314
▁started	-2315
▁Người	-2316
lex	-2317
▁chồng	-2318
▁Se	-2319
▁Sơn	-2320
▁Long	-2321
idd	-2322
▁women	-2323
▁Pl	-2324
▁stop	-2325
▁name	-2326
▁oper	-2327
ax	-2328
▁plan	-2329
▁độc	-2330
ague	-2331
▁thing	-2332
ike	-2333
▁house	-2334
▁based	-2335
▁soc	-2336
▁company	-2337
aced	-2338
▁nhóm	-2339
▁cond	-2340
ón	-2341
ried	-2342
▁Bar	-2343
▁thần	-2344
iam	-2345
ript	-2346
▁nhằm	-2347
▁mom	-2348
▁York	-2349
▁clear	-2350
ẩy	-2351
ently	-2352
▁chú	-2353
▁became	-2354
▁lựa	-2355
▁tàu	-2356
▁phù	-2357
urs	-2358
▁ủ	-2359
▁To	-2360
▁wanted	-2361
▁Em	-2362
▁Nhật	-2363
▁fore	-2364
aining	-2365
▁môi	-2366
▁luận	-2367
▁son	-2368
▁relations	-2369
▁went	-2370
▁vòng	-2371
▁USD	-2372
▁av	-2373
▁chịu	-2374
▁Ngoài	-2375
bs	-2376
▁thoại	-2377
▁death	-2378
▁tướng	-2379
▁side	-2380
▁Af	-2381
▁*	-2382
▁bro	-2383
ior	-2384
▁hu	-2385
▁plot	-2386
▁yet	-2387
▁Su	-2388
ality	-2389
▁says	-2390
▁quận	-2391
▁mind	-2392
▁deal	-2393
▁five	-2394
▁Man	-2395
▁days	-2396
▁tải	-2397
▁góp	-2398
▁par	-2399
▁buy	-2400
itch	-2401
▁Eur	-2402
▁once	-2403
▁origin	-2404
▁Đồng	-2405
▁opp	-2406
ream	-2407
▁trò	-2408
▁econom	-2409
▁xét	-2410
ccess	-2411
▁âm	-2412
ued	-2413
▁ngân	-2414
▁program	-2415
omp	-2416
ready	-2417
▁post	-2418
▁var	-2419
te	-2420
▁commun	-2421
aster	-2422
ged	-2423
▁strong	-2424
ony	-2425
▁Obama	-2426
▁reader	-2427
yle	-2428
▁done	-2429
▁bad	-2430
▁present	-2431
aughter	-2432
▁trái	-2433
ball	-2434
ured	-2435
▁nằm	-2436
▁hồi	-2437
▁rese	-2438
▁viết	-2439
▁Thu	-2440
▁sit	-2441
▁requ	-2442
▁free	-2443
▁UB	-2444
▁consid	-2445
▁sẻ	-2446
▁What	-2447
inc	-2448
▁bas	-2449
▁sơ	-2450
aps	-2451
▁lớp	-2452
▁However	-2453
▁sol	-2454
▁former	-2455
▁already	-2456
ump	-2457
▁having	-2458
▁nông	-2459
▁God	-2460
▁making	-2461
▁able	-2462
▁That	-2463
▁major	-2464
▁cor	-2465
▁trách	-2466
by	-2467
▁face	-2468
▁quick	-2469
ians	-2470
▁result	-2471
iqu	-2472
▁phối	-2473
▁tín	-2474
▁const	-2475
ids	-2476
▁toán	-2477
▁almost	-2478
▁aw	-2479
▁fall	-2480
▁money	-2481
▁dành	-2482
úi	-2483
ạp	-2484
▁hon	-2485
▁chạy	-2486
▁chang	-2487
ideo	-2488
atic	-2489
aim	-2490
ison	-2491
▁half	-2492
▁nhạc	-2493
▁hậu	-2494
ron	-2495
▁design	-2496
▁hôm	-2497
ored	-2498
▁chiều	-2499
▁vui	-2500
ials	-2501
▁city	-2502
▁link	-2503
▁camp	-2504
▁forward	-2505
▁Tây	-2506
▁Thái	-2507
▁War	-2508
▁page	-2509
▁become	-2510
▁Nga	-2511
reen	-2512
▁Điều	-2513
▁non	-2514
NG	-2515
▁thiếu	-2516
▁human	-2517
▁case	-2518
▁least	-2519
▁woman	-2520
▁Will	-2521
▁tuần	-2522
▁Ex	-2523
▁bước	-2524
▁áo	-2525
▁nghe	-2526
▁mô	-2527
▁often	-2528
▁Á	-2529
ửi	-2530
ards	-2531
ium	-2532
ency	-2533
▁dist	-2534
▁Her	-2535
▁khỏ	-2536
▁level	-2537
uôi	-2538
▁film	-2539
▁lâu	-2540
àm	-2541
▁hold	-2542
ising	-2543
▁favor	-2544
▁light	-2545
▁Từ	-2546
▁ngoại	-2547
▁cop	-2548
▁val	-2549
▁Trần	-2550
▁thắng	-2551
fect	-2552
▁techn	-2553
▁pain	-2554
▁hòa	-2555
▁Ger	-2556
▁thiện	-2557
▁grow	-2558
▁tấn	-2559
iễn	-2560
▁ghi	-2561
▁Ge	-2562
▁meet	-2563
▁beaut	-2564
▁đông	-2565
▁đàn	-2566
▁move	-2567
▁dri	-2568
▁cam	-2569
une	-2570
▁teach	-2571
▁Hồ	-2572
▁Dương	-2573
▁susp	-2574
▁Comm	-2575
▁attack	-2576
▁cộng	-2577
aged	-2578
▁University	-2579
▁describ	-2580
▁đôi	-2581
▁chắc	-2582
▁xa	-2583
▁dra	-2584
▁Trước	-2585
▁given	-2586
book	-2587
▁father	-2588
▁đô	-2589
▁khỏe	-2590
▁research	-2591
▁mùa	-2592
▁spe	-2593
ator	-2594
▁<	-2595
▁organ	-2596
▁States	-2597
ales	-2598
▁Hiện	-2599
▁dòng	-2600
▁intern	-2601
▁Phó	-2602
▁Lê	-2603
▁defin	-2604
▁everything	-2605
▁rom	-2606
▁town	-2607
nam	-2608
▁success	-2609
▁South	-2610
▁relationship	-2611
▁vọng	-2612
▁land	-2613
▁chết	-2614
▁health	-2615
▁trying	-2616
▁Trường	-2617
▁đứng	-2618
▁UBND	-2619
uck	-2620
▁received	-2621
▁nghiên	-2622
▁pat	-2623
▁eyes	-2624
▁area	-2625
▁sent	-2626
▁esp	-2627
my	-2628
▁milit	-2629
▁khỏi	-2630
▁hope	-2631
▁believe	-2632
▁occ	-2633
▁important	-2634
▁đốc	-2635
▁product	-2636
▁phá	-2637
▁doesn	-2638
▁Tại	-2639
iful	-2640
ted	-2641
▁Or	-2642
▁thr	-2643
▁cau	-2644
▁suất	-2645
▁Not	-2646
ecially	-2647
ata	-2648
▁third	-2649
▁mother	-2650
▁using	-2651
▁someone	-2652
▁Xu	-2653
▁tuyển	-2654
▁Tu	-2655
ones	-2656
▁Vì	-2657
▁No	-2658
side	-2659
▁disapp	-2660
▁xin	-2661
▁vers	-2662
ae	-2663
▁Hu	-2664
▁Bạn	-2665
aces	-2666
▁phản	-2667
ili	-2668
▁>	-2669
▁aff	-2670
▁Great	-2671
ùi	-2672
▁huy	-2673
▁Ngày	-2674
oss	-2675
▁market	-2676
orts	-2677
▁đảo	-2678
▁dưỡng	-2679
▁thuận	-2680
▁tuyến	-2681
ograph	-2682
ỏa	-2683
▁giống	-2684
▁Pres	-2685
▁bo	-2686
aken	-2687
▁invol	-2688
▁mean	-2689
▁worth	-2690
ầng	-2691
ether	-2692
▁vài	-2693
▁thất	-2694
▁ple	-2695
ither	-2696
▁lĩnh	-2697
▁anything	-2698
▁Rep	-2699
▁personal	-2700
▁held	-2701
▁Aust	-2702
▁môn	-2703
▁Để	-2704
iềm	-2705
▁nền	-2706
▁phiên	-2707
lish	-2708
▁cap	-2709
▁Cal	-2710
▁lễ	-2711
▁boy	-2712
▁Ed	-2713
▁cou	-2714
▁Sy	-2715
▁appear	-2716
▁incre	-2717
▁test	-2718
▁tit	-2719
▁ll	-2720
era	-2721
▁City	-2722
ording	-2723
▁pract	-2724
por	-2725
▁refer	-2726
▁El	-2727
▁began	-2728
▁mag	-2729
iously	-2730
▁pages	-2731
▁order	-2732
▁Ne	-2733
▁khoản	-2734
▁Hoa	-2735
▁phot	-2736
▁Ir	-2737
▁Har	-2738
▁within	-2739
gn	-2740
▁lost	-2741
▁gửi	-2742
▁hút	-2743
▁stat	-2744
▁giám	-2745
▁lộ	-2746
▁actually	-2747
▁cán	-2748
▁jour	-2749
▁dầu	-2750
▁current	-2751
ape	-2752
▁đêm	-2753
▁especially	-2754
▁perform	-2755
ective	-2756
ances	-2757
▁getting	-2758
▁bác	-2759
▁Europe	-2760
▁ô	-2761
▁hour	-2762
iety	-2763
▁change	-2764
▁gave	-2765
▁nothing	-2766
▁myst	-2767
▁deep	-2768
▁vai	-2769
▁đau	-2770
▁phút	-2771
▁allow	-2772
▁fig	-2773
▁ưu	-2774
▁nghề	-2775
ries	-2776
▁Fl	-2777
▁mại	-2778
ger	-2779
▁music	-2780
▁whole	-2781
▁pick	-2782
fic	-2783
▁pict	-2784
▁pay	-2785
▁deb	-2786
iction	-2787
▁hại	-2788
▁sâu	-2789
▁thấp	-2790
▁buổi	-2791
▁Jan	-2792
▁cải	-2793
▁ill	-2794
▁With	-2795
▁quite	-2796
▁chữa	-2797
▁reach	-2798
sw	-2799
▁đâu	-2800
▁true	-2801
▁fut	-2802
▁examp	-2803
▁nguy	-2804
▁Chúng	-2805
ief	-2806
▁age	-2807
▁stre	-2808
▁Bản	-2809
▁himself	-2810
▁live	-2811
▁Dav	-2812
▁hãy	-2813
▁Mich	-2814
ming	-2815
▁tầng	-2816
▁course	-2817
▁lang	-2818
used	-2819
ified	-2820
▁trad	-2821
ocr	-2822
▁ổ	-2823
▁Dr	-2824
empt	-2825
▁Liên	-2826
▁six	-2827
▁hiểm	-2828
oci	-2829
HCM	-2830
▁Ab	-2831
▁chấp	-2832
▁tức	-2833
▁certain	-2834
▁lives	-2835
▁president	-2836
ler	-2837
▁mã	-2838
▁words	-2839
▁tre	-2840
▁tội	-2841
úa	-2842
▁born	-2843
▁uống	-2844
▁watch	-2845
▁Ngọc	-2846
▁crit	-2847
▁Par	-2848
▁parent	-2849
▁perfect	-2850
ouch	-2851
▁action	-2852
▁Min	-2853
èo	-2854
wards	-2855
▁expect	-2856
▁ru	-2857
eth	-2858
▁kéo	-2859
▁following	-2860
▁seen	-2861
▁Me	-2862
▁vo	-2863
▁wonderful	-2864
itely	-2865
▁bổ	-2866
▁kiếm	-2867
▁wal	-2868
▁hy	-2869
▁members	-2870
▁gener	-2871
▁Gu	-2872
aly	-2873
▁fight	-2874
▁Sở	-2875
▁event	-2876
▁behind	-2877
▁surpr	-2878
▁hot	-2879
▁đào	-2880
ended	-2881
▁đẩy	-2882
▁prob	-2883
▁mong	-2884
▁dạng	-2885
▁kích	-2886
▁video	-2887
▁tai	-2888
▁knew	-2889
èn	-2890
ublic	-2891
▁room	-2892
▁che	-2893
▁Intern	-2894
▁body	-2895
▁giấy	-2896
▁daughter	-2897
▁police	-2898
▁months	-2899
▁comes	-2900
▁cut	-2901
▁amaz	-2902
▁]	-2903
▁lik	-2904
▁North	-2905
▁tot	-2906
▁trav	-2907
▁foot	-2908
▁capt	-2909
bum	-2910
▁water	-2911
▁histor	-2912
istan	-2913
▁abs	-2914
▁beautiful	-2915
ploy	-2916
▁đáp	-2917
co	-2918
▁Was	-2919
▁style	-2920
orr	-2921
wh	-2922
▁thuế	-2923
▁While	-2924
ellent	-2925
▁ago	-2926
▁trai	-2927
▁local	-2928
▁across	-2929
▁myself	-2930
sel	-2931
▁Quảng	-2932
▁National	-2933
▁released	-2934
▁thuê	-2935
ilt	-2936
▁vượt	-2937
▁Cent	-2938
▁xúc	-2939
▁hát	-2940
▁nhi	-2941
aper	-2942
▁sum	-2943
▁+	-2944
▁played	-2945
sh	-2946
▁large	-2947
▁cử	-2948
▁kỷ	-2949
▁German	-2950
▁final	-2951
ulation	-2952
omb	-2953
ively	-2954
apter	-2955
▁jo	-2956
duced	-2957
▁rather	-2958
▁ngôi	-2959
▁British	-2960
▁nhớ	-2961
▁sư	-2962
▁Lan	-2963
▁xanh	-2964
▁z	-2965
ua	-2966
▁super	-2967
▁today	-2968
eb	-2969
aring	-2970
▁[	-2971
ilar	-2972
▁highly	-2973
▁enc	-2974
▁seems	-2975
port	-2976
▁equ	-2977
thern	-2978
▁Ang	-2979
ham	-2980
▁cost	-2981
▁trắng	-2982
▁fre	-2983
▁cường	-2984
▁nuôi	-2985
▁Kim	-2986
▁intro	-2987
ớm	-2988
▁takes	-2989
oph	-2990
▁ích	-2991
▁chẳng	-2992
▁among	-2993
iter	-2994
ission	-2995
▁foc	-2996
▁duy	-2997
▁Pol	-2998
▁Te	-2999
itions	-3000
▁vẻ	-3001
▁cult	-3002
▁claim	-3003
▁particular	-3004
▁political	-3005
▁kept	-3006
▁hạ	-3007
▁however	-3008
sy	-3009
▁tour	-3010
ases	-3011
acy	-3012
▁nặng	-3013
▁profess	-3014
▁liked	-3015
▁Hàn	-3016
▁pret	-3017
▁President	-3018
▁nhiệt	-3019
eal	-3020
▁comment	-3021
▁Pháp	-3022
▁working	-3023
ny	-3024
▁Phú	-3025
▁tránh	-3026
▁thẩm	-3027
▁future	-3028
▁Đảng	-3029
▁elect	-3030
ivid	-3031
▁thủy	-3032
▁fan	-3033
▁asked	-3034
aid	-3035
elling	-3036
▁Hòa	-3037
ỏng	-3038
▁chỉnh	-3039
eter	-3040
ctor	-3041
▁Xuân	-3042
ald	-3043
▁xuyên	-3044
EA	-3045
▁purch	-3046
▁Và	-3047
▁món	-3048
oon	-3049
▁sửa	-3050
istic	-3051
▁fail	-3052
iting	-3053
sc	-3054
▁fur	-3055
▁treat	-3056
▁expected	-3057
▁addition	-3058
ination	-3059
▁dev	-3060
▁Sec	-3061
▁Some	-3062
omes	-3063
▁thảo	-3064
▁chỗ	-3065
lic	-3066
istrict	-3067
▁conn	-3068
▁Dem	-3069
▁self	-3070
▁close	-3071
ER	-3072
▁hãng	-3073
▁grand	-3074
ensive	-3075
▁niên	-3076
▁everyone	-3077
ficult	-3078
▁trời	-3079
uff	-3080
▁album	-3081
▁emot	-3082
oring	-3083
▁II	-3084
▁entire	-3085
▁sớm	-3086
▁vol	-3087
ressed	-3088
▁military	-3089
ggest	-3090
▁cre	-3091
UR	-3092
iod	-3093
▁Char	-3094
▁process	-3095
▁single	-3096
▁subject	-3097
▁led	-3098
▁sound	-3099
▁difficult	-3100
▁ngủ	-3101
▁châu	-3102
▁compet	-3103
▁By	-3104
▁late	-3105
alle	-3106
▁suggest	-3107
▁tuyên	-3108
▁try	-3109
▁khởi	-3110
▁black	-3111
▁taken	-3112
▁nhẹ	-3113
ctions	-3114
▁experience	-3115
▁giác	-3116
▁works	-3117
▁West	-3118
ival	-3119
▁couldn	-3120
▁La	-3121
ặn	-3122
irc	-3123
▁sold	-3124
▁ngờ	-3125
▁Co	-3126
▁tù	-3127
▁ap	-3128
ett	-3129
▁bought	-3130
mp	-3131
ips	-3132
itive	-3133
TT	-3134
ev	-3135
▁fell	-3136
▁nghỉ	-3137
▁sn	-3138
▁America	-3139
▁giản	-3140
eck	-3141
ects	-3142
▁reason	-3143
▁bar	-3144
▁beginning	-3145
▁fund	-3146
▁probably	-3147
▁nghi	-3148
▁màn	-3149
ma	-3150
▁Geor	-3151
▁points	-3152
▁definitely	-3153
artment	-3154
rop	-3155
▁khám	-3156
ọt	-3157
ening	-3158
ươi	-3159
▁special	-3160
▁step	-3161
▁saw	-3162
▁Thông	-3163
▁Count	-3164
▁kê	-3165
▁hop	-3166
▁doing	-3167
▁thúc	-3168
▁building	-3169
▁stay	-3170
▁turned	-3171
▁ant	-3172
▁tuyệt	-3173
▁favorite	-3174
▁else	-3175
▁Tân	-3176
ges	-3177
▁Năm	-3178
▁disappoint	-3179
ngth	-3180
▁food	-3181
▁needed	-3182
▁mặc	-3183
▁ending	-3184
▁Thế	-3185
▁chóng	-3186
umb	-3187
▁House	-3188
▁trao	-3189
▁Russ	-3190
▁mor	-3191
▁sense	-3192
▁Sept	-3193
▁khẳng	-3194
▁problem	-3195
▁idea	-3196
▁taking	-3197
▁|	-3198
dd	-3199
▁educ	-3200
ortun	-3201
▁phiếu	-3202
▁nóng	-3203
▁soát	-3204
▁nghiêm	-3205
▁text	-3206
▁quanh	-3207
▁wife	-3208
oe	-3209
nes	-3210
▁site	-3211
right	-3212
▁Việc	-3213
▁Aug	-3214
gest	-3215
aul	-3216
▁trì	-3217
▁chăm	-3218
▁sat	-3219
▁Viet	-3220
▁Phòng	-3221
ands	-3222
▁March	-3223
▁cân	-3224
▁ổn	-3225
▁vict	-3226
▁port	-3227
idence	-3228
▁insp	-3229
▁soon	-3230
aff	-3231
▁died	-3232
▁looked	-3233
▁dark	-3234
▁Lond	-3235
▁Per	-3236
▁tax	-3237
ode	-3238
▁due	-3239
▁amazing	-3240
▁period	-3241
▁Giang	-3242
▁dấu	-3243
ustr	-3244
▁thưởng	-3245
▁div	-3246
af	-3247
fully	-3248
▁=	-3249
▁coming	-3250
▁Â	-3251
▁living	-3252
▁slow	-3253
▁hit	-3254
▁miền	-3255
▁ánh	-3256
▁mur	-3257
▁London	-3258
ization	-3259
ze	-3260
▁langu	-3261
use	-3262
ara	-3263
uary	-3264
▁conv	-3265
▁break	-3266
▁gift	-3267
ending	-3268
rench	-3269
ef	-3270
ada	-3271
aving	-3272
▁thái	-3273
ky	-3274
▁Just	-3275
▁đỏ	-3276
▁Oct	-3277
▁dou	-3278
▁Sam	-3279
rig	-3280
▁sai	-3281
▁khắc	-3282
▁service	-3283
ots	-3284
▁control	-3285
▁Austral	-3286
▁Tw	-3287
▁DN	-3288
▁thăm	-3289
ique	-3290
▁front	-3291
▁guy	-3292
attle	-3293
▁Med	-3294
▁recip	-3295
ão	-3296
▁hero	-3297
▁discuss	-3298
▁These	-3299
▁students	-3300
ned	-3301
ille	-3302
rest	-3303
▁red	-3304
▁vill	-3305
▁chapter	-3306
▁nhờ	-3307
urity	-3308
▁project	-3309
▁King	-3310
▁tốc	-3311
▁Như	-3312
▁announ	-3313
▁Nguyên	-3314
ói	-3315
▁Gen	-3316
▁dàng	-3317
▁answ	-3318
▁development	-3319
▁Châu	-3320
▁tận	-3321
▁honest	-3322
▁pie	-3323
▁bức	-3324
▁romance	-3325
▁thơ	-3326
▁Kho	-3327
▁máu	-3328
iff	-3329
▁nối	-3330
▁mắc	-3331
▁quay	-3332
▁touch	-3333
ềm	-3334
selves	-3335
▁issues	-3336
▁star	-3337
▁excellent	-3338
ey	-3339
▁chiếm	-3340
▁sạch	-3341
▁rẻ	-3342
▁biên	-3343
alleng	-3344
band	-3345
▁fast	-3346
▁hands	-3347
▁Chỉ	-3348
▁ang	-3349
ills	-3350
lect	-3351
▁bring	-3352
▁En	-3353
ịnh	-3354
urg	-3355
▁Đà	-3356
▁Bên	-3357
▁national	-3358
▁indust	-3359
▁Sen	-3360
iday	-3361
▁club	-3362
▁finished	-3363
▁sông	-3364
utes	-3365
▁giai	-3366
▁manag	-3367
▁cập	-3368
▁thử	-3369
▁ngồi	-3370
▁low	-3371
▁Air	-3372
iding	-3373
▁viol	-3374
▁wasn	-3375
▁published	-3376
▁June	-3377
▁pretty	-3378
▁chắn	-3379
òi	-3380
▁situ	-3381
▁member	-3382
▁ord	-3383
▁vũ	-3384
▁suff	-3385
▁ste	-3386
▁Kỳ	-3387
▁Ass	-3388
iddle	-3389
▁norm	-3390
▁question	-3391
▁fire	-3392
▁Phương	-3393
▁Quang	-3394
▁khóa	-3395
ael	-3396
▁party	-3397
hington	-3398
▁further	-3399
resent	-3400
na	-3401
ampions	-3402
▁kids	-3403
▁events	-3404
oul	-3405
▁clos	-3406
▁loài	-3407
▁adm	-3408
▁bi	-3409
apan	-3410
▁August	-3411
▁lửa	-3412
▁whether	-3413
ãy	-3414
▁League	-3415
▁either	-3416
▁Don	-3417
ana	-3418
▁attempt	-3419
▁mess	-3420
ễm	-3421
▁Washington	-3422
▁App	-3423
ứt	-3424
▁Park	-3425
▁lim	-3426
▁match	-3427
▁mối	-3428
▁moved	-3429
▁wish	-3430
▁account	-3431
▁lạnh	-3432
▁Sw	-3433
▁Ira	-3434
raz	-3435
▁khảo	-3436
err	-3437
▁although	-3438
▁century	-3439
ico	-3440
ino	-3441
▁readers	-3442
▁copy	-3443
▁couple	-3444
eg	-3445
▁quán	-3446
▁general	-3447
rug	-3448
asc	-3449
▁parents	-3450
▁financ	-3451
▁siêu	-3452
▁Cr	-3453
▁stars	-3454
▁price	-3455
▁strugg	-3456
▁laugh	-3457
erm	-3458
ises	-3459
ract	-3460
▁comb	-3461
▁happy	-3462
▁secret	-3463
▁Chí	-3464
ential	-3465
▁ấn	-3466
▁fill	-3467
▁thiên	-3468
▁January	-3469
▁Iraq	-3470
▁prop	-3471
▁China	-3472
▁shows	-3473
▁thú	-3474
▁gives	-3475
lo	-3476
▁Mal	-3477
▁ủy	-3478
▁Apr	-3479
ẵn	-3480
ply	-3481
▁study	-3482
▁hers	-3483
▁chứ	-3484
▁đem	-3485
▁mot	-3486
▁share	-3487
▁include	-3488
▁dead	-3489
▁kính	-3490
rought	-3491
▁throughout	-3492
▁David	-3493
aves	-3494
pite	-3495
▁priv	-3496
▁Jack	-3497
▁original	-3498
▁Lo	-3499
▁mater	-3500
▁cánh	-3501
▁TV	-3502
▁quần	-3503
▁nice	-3504
▁Hồng	-3505
▁September	-3506
▁phạt	-3507
▁cháu	-3508
▁Japan	-3509
▁Pal	-3510
▁Sm	-3511
▁Ser	-3512
▁April	-3513
▁bày	-3514
▁dây	-3515
▁đọc	-3516
itting	-3517
anger	-3518
▁niệm	-3519
▁bảng	-3520
uted	-3521
▁infl	-3522
▁reported	-3523
pping	-3524
▁avail	-3525
▁ident	-3526
ades	-3527
▁phóng	-3528
▁English	-3529
▁phường	-3530
▁Giám	-3531
raft	-3532
▁Res	-3533
▁trải	-3534
aign	-3535
▁Ba	-3536
▁School	-3537
▁July	-3538
ateg	-3539
▁version	-3540
▁Gl	-3541
▁hus	-3542
▁Du	-3543
▁thí	-3544
ester	-3545
▁họp	-3546
par	-3547
▁ep	-3548
▁accept	-3549
▁Pe	-3550
▁included	-3551
▁tặng	-3552
ument	-3553
▁cấu	-3554
ãn	-3555
▁investig	-3556
TV	-3557
▁travel	-3558
▁lẽ	-3559
▁luyện	-3560
▁thôn	-3561
▁Luật	-3562
▁title	-3563
▁killed	-3564
▁named	-3565
▁lạc	-3566
▁finish	-3567
▁arri	-3568
▁repl	-3569
ights	-3570
▁quen	-3571
▁dạy	-3572
▁mềm	-3573
▁Democr	-3574
▁challeng	-3575
▁aut	-3576
▁imag	-3577
▁dest	-3578
▁Go	-3579
▁wants	-3580
▁Ninh	-3581
oming	-3582
▁sung	-3583
▁instead	-3584
▁xếp	-3585
▁tỉ	-3586
▁worked	-3587
▁phê	-3588
▁Republic	-3589
▁mái	-3590
work	-3591
▁Cup	-3592
▁needs	-3593
mb	-3594
▁fac	-3595
▁Rom	-3596
▁thôi	-3597
▁hấp	-3598
▁Phạm	-3599
▁San	-3600
▁fant	-3601
▁possible	-3602
ires	-3603
▁wrong	-3604
lier	-3605
vision	-3606
medi	-3607
▁isn	-3608
▁seemed	-3609
ounc	-3610
▁example	-3611
uters	-3612
iron	-3613
▁bầu	-3614
▁data	-3615
▁leave	-3616
▁similar	-3617
▁Bảo	-3618
▁activ	-3619
▁road	-3620
▁narr	-3621
▁Nhiều	-3622
▁Bà	-3623
▁wind	-3624
▁unc	-3625
▁Cor	-3626
▁nợ	-3627
▁goes	-3628
▁quickly	-3629
▁suy	-3630
lin	-3631
▁tiểu	-3632
▁tộc	-3633
▁field	-3634
ements	-3635
▁sẵn	-3636
▁nhé	-3637
▁pack	-3638
▁surv	-3639
nal	-3640
▁trồng	-3641
▁Afric	-3642
ators	-3643
▁buộc	-3644
isc	-3645
▁pot	-3646
▁common	-3647
▁matter	-3648
ears	-3649
▁State	-3650
▁chờ	-3651
▁October	-3652
▁loss	-3653
▁Fin	-3654
▁ground	-3655
▁heav	-3656
▁problems	-3657
ivil	-3658
eleg	-3659
▁dam	-3660
ring	-3661
▁writer	-3662
AS	-3663
▁added	-3664
▁lau	-3665
▁social	-3666
▁impro	-3667
bsite	-3668
▁tòa	-3669
▁khối	-3670
▁career	-3671
▁discover	-3672
▁gets	-3673
▁compan	-3674
▁entertain	-3675
▁Ever	-3676
▁attention	-3677
unt	-3678
▁Calif	-3679
▁finally	-3680
▁mật	-3681
▁kiểu	-3682
BC	-3683
not	-3684
ministr	-3685
▁CN	-3686
▁movie	-3687
ộn	-3688
▁cũ	-3689
estern	-3690
▁online	-3691
▁mỹ	-3692
▁Vũ	-3693
▁mult	-3694
▁according	-3695
▁swe	-3696
▁Book	-3697
▁inside	-3698
▁vay	-3699
omin	-3700
▁reve	-3701
▁Đến	-3702
▁press	-3703
▁Dự	-3704
▁officials	-3705
▁rul	-3706
▁cha	-3707
rael	-3708
▁Nove	-3709
▁Dece	-3710
▁fa	-3711
▁hạng	-3712
▁role	-3713
▁available	-3714
▁Ste	-3715
iếp	-3716
▁moment	-3717
▁November	-3718
▁billion	-3719
▁Part	-3720
▁language	-3721
▁hours	-3722
▁north	-3723
erson	-3724
ụp	-3725
▁hơi	-3726
▁track	-3727
▁white	-3728
▁Iran	-3729
▁December	-3730
▁questions	-3731
▁husband	-3732
▁door	-3733
▁Cu	-3734
▁cầm	-3735
AT	-3736
ci	-3737
▁mưa	-3738
▁office	-3739
▁lương	-3740
▁hạt	-3741
▁lá	-3742
▁mystery	-3743
▁thẳng	-3744
▁High	-3745
▁arg	-3746
▁squ	-3747
▁đích	-3748
▁tái	-3749
èm	-3750
▁happened	-3751
astic	-3752
▁chuyến	-3753
▁Christian	-3754
▁ninh	-3755
▁Ả	-3756
▁cắt	-3757
uel	-3758
▁rad	-3759
▁sil	-3760
▁ngăn	-3761
▁interested	-3762
▁Israel	-3763
▁campaign	-3764
▁bánh	-3765
▁church	-3766
yn	-3767
▁leaders	-3768
▁tỏ	-3769
▁liter	-3770
▁Cam	-3771
▁games	-3772
▁Ro	-3773
▁proper	-3774
▁tem	-3775
▁estab	-3776
▁Ở	-3777
▁individ	-3778
▁tô	-3779
▁saf	-3780
▁approach	-3781
▁brought	-3782
▁Đo	-3783
▁fair	-3784
▁write	-3785
▁details	-3786
▁parts	-3787
▁chứa	-3788
▁draw	-3789
ray	-3790
▁Còn	-3791
▁circ	-3792
▁phổ	-3793
▁court	-3794
▁làng	-3795
▁ran	-3796
go	-3797
arter	-3798
epend	-3799
▁chút	-3800
▁cháy	-3801
▁spir	-3802
▁built	-3803
▁employ	-3804
▁lư	-3805
▁wrote	-3806
▁bene	-3807
▁Feb	-3808
▁focus	-3809
▁south	-3810
▁pur	-3811
URL	-3812
▁truly	-3813
▁William	-3814
▁sett	-3815
▁agre	-3816
▁experi	-3817
▁đón	-3818
▁stri	-3819
ched	-3820
▁Tài	-3821
▁nàng	-3822
▁Comp	-3823
▁miễn	-3824
eared	-3825
▁French	-3826
ON	-3827
▁voice	-3828
▁VN	-3829
▁authors	-3830
▁sometimes	-3831
▁tầm	-3832
urb	-3833
▁linh	-3834
▁involved	-3835
▁hài	-3836
head	-3837
▁outside	-3838
▁suốt	-3839
▁Chi	-3840
▁mấy	-3841
▁itself	-3842
▁caus	-3843
õi	-3844
ude	-3845
▁descript	-3846
▁fem	-3847
▁nhiễm	-3848
▁represent	-3849
▁saying	-3850
▁đổ	-3851
ume	-3852
▁exec	-3853
ẵng	-3854
to	-3855
▁round	-3856
▁Ủ	-3857
ria	-3858
ederal	-3859
▁County	-3860
▁pred	-3861
▁Linh	-3862
▁cred	-3863
▁brother	-3864
▁themselves	-3865
▁Dep	-3866
▁relig	-3867
▁coi	-3868
▁Inst	-3869
▁From	-3870
▁Rober	-3871
▁sour	-3872
▁concern	-3873
TC	-3874
een	-3875
▁gỗ	-3876
▁Sund	-3877
▁herself	-3878
▁England	-3879
▁biện	-3880
ford	-3881
▁vot	-3882
▁Ma	-3883
▁James	-3884
▁aud	-3885
▁thinking	-3886
▁tried	-3887
▁Phát	-3888
▁Kinh	-3889
▁Thiên	-3890
imate	-3891
ped	-3892
▁Gia	-3893
▁ương	-3894
oud	-3895
▁various	-3896
▁individual	-3897
▁bed	-3898
haps	-3899
▁Ủy	-3900
▁Now	-3901
▁Mad	-3902
reet	-3903
▁gắn	-3904
▁neg	-3905
▁Hai	-3906
asing	-3907
▁ris	-3908
▁sóc	-3909
▁lack	-3910
▁community	-3911
▁Đối	-3912
úy	-3913
▁đen	-3914
▁polic	-3915
agon	-3916
▁whose	-3917
▁lỗi	-3918
▁net	-3919
lus	-3920
▁Angel	-3921
LV	-3922
olution	-3923
▁iP	-3924
▁modern	-3925
▁AP	-3926
▁sợ	-3927
▁vững	-3928
cast	-3929
ruction	-3930
▁Ag	-3931
▁thác	-3932
▁phúc	-3933
▁Âu	-3934
▁described	-3935
▁ways	-3936
▁created	-3937
▁Cô	-3938
ogn	-3939
▁simply	-3940
▁heard	-3941
▁coll	-3942
antly	-3943
▁previous	-3944
cted	-3945
▁loves	-3946
▁terr	-3947
ouncil	-3948
itted	-3949
▁immedi	-3950
▁international	-3951
▁nhật	-3952
▁cal	-3953
bor	-3954
▁exist	-3955
▁McC	-3956
▁Californ	-3957
▁Tiên	-3958
▁bật	-3959
▁except	-3960
▁tạm	-3961
▁kịp	-3962
▁phys	-3963
idge	-3964
▁remember	-3965
▁kém	-3966
▁Nhân	-3967
▁anim	-3968
▁search	-3969
itor	-3970
▁financial	-3971
▁sen	-3972
▁#	-3973
aily	-3974
oor	-3975
urt	-3976
▁dần	-3977
▁Paul	-3978
▁jud	-3979
ster	-3980
▁simple	-3981
ủng	-3982
▁thao	-3983
▁prim	-3984
▁khán	-3985
▁gốc	-3986
▁band	-3987
▁hương	-3988
aine	-3989
▁election	-3990
▁Đó	-3991
▁Although	-3992
aging	-3993
ẹn	-3994
▁lif	-3995
yl	-3996
▁Good	-3997
▁maybe	-3998
▁California	-3999
▁cục	-4000
▁absol	-4001
▁init	-4002
▁Nẵng	-4003
▁scen	-4004
▁earlier	-4005
▁lab	-4006
▁Mus	-4007
▁liền	-4008
▁developed	-4009
imin	-4010
NH	-4011
▁Về	-4012
▁kim	-4013
▁et	-4014
▁khúc	-4015
▁exact	-4016
hood	-4017
▁thiệu	-4018
▁served	-4019
▁Mai	-4020
▁Tổ	-4021
▁hôn	-4022
ask	-4023
▁sắp	-4024
▁helped	-4025
▁chợ	-4026
mar	-4027
▁adult	-4028
▁station	-4029
▁population	-4030
▁chữ	-4031
▁likely	-4032
▁Cũng	-4033
ental	-4034
▁Ms	-4035
▁tuy	-4036
▁nearly	-4037
▁Des	-4038
▁host	-4039
▁giving	-4040
▁imm	-4041
▁recent	-4042
hone	-4043
uk	-4044
sen	-4045
▁ngắn	-4046
ót	-4047
▁quality	-4048
ũi	-4049
▁aver	-4050
▁Sunday	-4051
ledge	-4052
ES	-4053
▁cand	-4054
▁ước	-4055
aker	-4056
ruary	-4057
▁Ảnh	-4058
ients	-4059
▁collection	-4060
▁thịt	-4061
▁tắc	-4062
▁Hol	-4063
▁continue	-4064
▁means	-4065
▁thừa	-4066
▁trú	-4067
PT	-4068
oved	-4069
▁rừng	-4070
▁Reuters	-4071
▁February	-4072
▁tóc	-4073
▁Mark	-4074
▁popular	-4075
▁sle	-4076
▁nhấn	-4077
▁inj	-4078
▁thậm	-4079
▁drug	-4080
▁threat	-4081
▁advent	-4082
yc	-4083
▁thụ	-4084
elevision	-4085
▁blood	-4086
anced	-4087
▁Trang	-4088
▁Tuấn	-4089
▁Off	-4090
▁type	-4091
▁decided	-4092
▁extrem	-4093
▁cận	-4094
▁alone	-4095
ners	-4096
erc	-4097
▁lai	-4098
▁lạ	-4099
▁kẻ	-4100
▁completely	-4101
▁Dan	-4102
▁Michael	-4103
irm	-4104
▁space	-4105
▁vé	-4106
▁cười	-4107
▁Đặc	-4108
▁mid	-4109
arm	-4110
▁issue	-4111
▁mention	-4112
▁Cục	-4113
▁weeks	-4114
▁thầy	-4115
ệt	-4116
▁phận	-4117
▁ten	-4118
▁thai	-4119
▁opened	-4120
▁opt	-4121
▁Even	-4122
▁spent	-4123
▁sữa	-4124
asy	-4125
▁quảng	-4126
▁xung	-4127
oard	-4128
▁unf	-4129
room	-4130
oke	-4131
▁Nghị	-4132
▁longer	-4133
▁fiction	-4134
▁Sự	-4135
▁Rich	-4136
▁Nor	-4137
lement	-4138
ander	-4139
▁cannot	-4140
▁cook	-4141
▁happen	-4142
▁HLV	-4143
▁ended	-4144
▁Read	-4145
ica	-4146
irt	-4147
▁rev	-4148
▁ly	-4149
▁tồn	-4150
OR	-4151
▁quê	-4152
▁total	-4153
▁ones	-4154
▁lay	-4155
▁dáng	-4156
▁đèn	-4157
▁broad	-4158
atural	-4159
uing	-4160
▁Lý	-4161
ological	-4162
▁cross	-4163
▁uy	-4164
icle	-4165
▁thoát	-4166
▁Black	-4167
▁Khu	-4168
▁announced	-4169
▁lái	-4170
atur	-4171
▁mass	-4172
▁Love	-4173
▁Mond	-4174
▁historical	-4175
▁nor	-4176
▁ball	-4177
back	-4178
▁hạnh	-4179
he	-4180
wood	-4181
enty	-4182
▁grad	-4183
iers	-4184
▁poor	-4185
▁key	-4186
▁contrib	-4187
▁giành	-4188
▁nghèo	-4189
▁tờ	-4190
▁position	-4191
▁doll	-4192
▁Sim	-4193
▁rút	-4194
▁Im	-4195
▁hải	-4196
▁dro	-4197
▁Alex	-4198
▁White	-4199
▁lược	-4200
vert	-4201
▁la	-4202
▁term	-4203
ground	-4204
▁Sing	-4205
▁deliver	-4206
enced	-4207
rupt	-4208
▁chụp	-4209
sych	-4210
▁truth	-4211
▁web	-4212
▁running	-4213
▁compl	-4214
▁Hy	-4215
▁administr	-4216
ression	-4217
▁cậu	-4218
iếng	-4219
▁opin	-4220
▁Lâm	-4221
▁doc	-4222
reg	-4223
▁companies	-4224
▁talk	-4225
▁quarter	-4226
▁arch	-4227
▁playing	-4228
▁khủng	-4229
▁economic	-4230
▁cust	-4231
▁xấu	-4232
▁Cho	-4233
▁dữ	-4234
▁bank	-4235
ghan	-4236
▁ngại	-4237
▁First	-4238
▁provide	-4239
▁minutes	-4240
▁nắm	-4241
▁Times	-4242
▁chặt	-4243
▁chance	-4244
▁European	-4245
aint	-4246
▁bab	-4247
▁niềm	-4248
▁Ear	-4249
▁Cour	-4250
▁website	-4251
zz	-4252
▁normal	-4253
▁lượt	-4254
▁lat	-4255
▁prep	-4256
▁Wed	-4257
▁sel	-4258
adem	-4259
▁Trên	-4260
▁dram	-4261
▁ideas	-4262
▁Cơ	-4263
▁xo	-4264
▁UK	-4265
asure	-4266
▁tươi	-4267
▁feeling	-4268
▁esc	-4269
▁eight	-4270
▁hầu	-4271
▁xong	-4272
▁binh	-4273
▁chiếu	-4274
▁ràng	-4275
alt	-4276
▁núi	-4277
▁Mart	-4278
ceed	-4279
▁figure	-4280
▁loạt	-4281
▁trụ	-4282
▁feat	-4283
▁Đoàn	-4284
▁murder	-4285
mas	-4286
▁East	-4287
▁sad	-4288
▁Phong	-4289
▁concept	-4290
▁Ngân	-4291
▁gun	-4292
ườn	-4293
bed	-4294
▁tradition	-4295
▁Yên	-4296
▁thiệt	-4297
▁Tues	-4298
▁Monday	-4299
vent	-4300
ability	-4301
▁đột	-4302
▁Associ	-4303
okes	-4304
▁mis	-4305
▁Friday	-4306
olf	-4307
▁access	-4308
▁Li	-4309
▁kia	-4310
▁liệt	-4311
▁Ter	-4312
▁respons	-4313
ference	-4314
▁store	-4315
▁Je	-4316
▁middle	-4317
▁truy	-4318
▁Tuesday	-4319
▁sóng	-4320
ớt	-4321
▁Thời	-4322
▁visit	-4323
▁ngũ	-4324
ĩa	-4325
▁industry	-4326
▁security	-4327
▁Street	-4328
irth	-4329
▁bền	-4330
▁đương	-4331
utive	-4332
utely	-4333
obal	-4334
▁yên	-4335
eless	-4336
▁khuyến	-4337
▁journey	-4338
lymp	-4339
▁turns	-4340
▁răng	-4341
▁race	-4342
ampionship	-4343
▁Được	-4344
▁usually	-4345
▁above	-4346
dom	-4347
▁Giáo	-4348
▁Tập	-4349
▁tấm	-4350
ula	-4351
▁recogn	-4352
elegraph	-4353
▁hook	-4354
▁dog	-4355
▁Colle	-4356
▁football	-4357
▁complex	-4358
ergy	-4359
▁leading	-4360
ounter	-4361
▁Họ	-4362
▁Mon	-4363
▁guess	-4364
▁Mex	-4365
▁họa	-4366
▁seven	-4367
▁complete	-4368
▁tôn	-4369
▁cast	-4370
▁influ	-4371
▁science	-4372
ites	-4373
▁obs	-4374
AN	-4375
iled	-4376
▁box	-4377
▁areas	-4378
▁trúc	-4379
▁rock	-4380
▁higher	-4381
▁material	-4382
▁soft	-4383
▁agree	-4384
OT	-4385
anch	-4386
▁Well	-4387
aight	-4388
▁Mil	-4389
▁upon	-4390
▁decision	-4391
▁countries	-4392
▁appre	-4393
ộp	-4394
▁amount	-4395
▁continued	-4396
▁dịp	-4397
▁college	-4398
▁bào	-4399
▁consider	-4400
▁Olymp	-4401
▁located	-4402
▁Red	-4403
▁paper	-4404
▁address	-4405
▁television	-4406
▁knows	-4407
▁Hưng	-4408
▁Afghan	-4409
▁Thương	-4410
▁toward	-4411
▁Tết	-4412
▁bạc	-4413
▁plans	-4414
▁interview	-4415
IS	-4416
▁signific	-4417
▁force	-4418
ify	-4419
▁George	-4420
▁Very	-4421
▁Cong	-4422
▁color	-4423
▁Over	-4424
▁Hãy	-4425
▁Phật	-4426
▁bếp	-4427
▁shop	-4428
▁mail	-4429
▁lắng	-4430
▁khổ	-4431
▁pictures	-4432
▁spirit	-4433
▁shot	-4434
▁nation	-4435
▁moving	-4436
▁Ham	-4437
▁private	-4438
▁env	-4439
▁followed	-4440
▁illustr	-4441
▁media	-4442
▁sister	-4443
▁Telegraph	-4444
oose	-4445
▁married	-4446
amin	-4447
▁bí	-4448
▁lệnh	-4449
AR	-4450
▁returned	-4451
▁thỏa	-4452
str	-4453
▁speak	-4454
ken	-4455
action	-4456
▁Wednes	-4457
▁đứa	-4458
▁ngữ	-4459
▁International	-4460
▁Bệnh	-4461
▁mời	-4462
▁lắp	-4463
▁director	-4464
▁Every	-4465
▁lắm	-4466
▁Mor	-4467
atives	-4468
▁nét	-4469
ari	-4470
▁meeting	-4471
▁den	-4472
hib	-4473
▁Val	-4474
▁changed	-4475
▁Đình	-4476
▁humor	-4477
▁trou	-4478
▁doub	-4479
▁Hương	-4480
▁During	-4481
uch	-4482
▁Hiệp	-4483
▁Wednesday	-4484
▁funny	-4485
▁ess	-4486
arily	-4487
▁trăm	-4488
▁average	-4489
▁sàn	-4490
▁kiệm	-4491
▁asp	-4492
▁Serv	-4493
▁straight	-4494
▁Also	-4495
ED	-4496
yond	-4497
▁nhắc	-4498
oog	-4499
▁Its	-4500
▁capital	-4501
ursday	-4502
▁Australia	-4503
lt	-4504
▁services	-4505
▁gió	-4506
▁latest	-4507
▁lãi	-4508
▁knowledge	-4509
▁teen	-4510
▁quà	-4511
hold	-4512
▁official	-4513
▁mộ	-4514
▁separ	-4515
ij	-4516
▁Robert	-4517
▁serious	-4518
▁chief	-4519
aught	-4520
▁hear	-4521
ares	-4522
▁size	-4523
▁understanding	-4524
▁Hùng	-4525
▁Tiến	-4526
iring	-4527
▁Thursday	-4528
▁cà	-4529
▁pul	-4530
▁Cao	-4531
▁Báo	-4532
▁mix	-4533
▁civil	-4534
ibility	-4535
rief	-4536
▁base	-4537
▁easily	-4538
▁Group	-4539
change	-4540
ession	-4541
▁rơi	-4542
▁tar	-4543
▁ready	-4544
▁wall	-4545
▁reviews	-4546
▁summer	-4547
▁breat	-4548
▁phi	-4549
▁appeared	-4550
overs	-4551
etic	-4552
▁states	-4553
▁hosp	-4554
▁Com	-4555
▁Pat	-4556
▁km	-4557
▁village	-4558
▁rich	-4559
▁Chúa	-4560
▁ach	-4561
▁rate	-4562
▁dừng	-4563
▁hắn	-4564
ilities	-4565
▁đỡ	-4566
▁forces	-4567
ọa	-4568
inton	-4569
▁appreci	-4570
▁reb	-4571
▁contract	-4572
▁France	-4573
▁cuốn	-4574
asons	-4575
men	-4576
ilies	-4577
▁effect	-4578
▁particularly	-4579
lear	-4580
▁Acc	-4581
▁leader	-4582
▁Giá	-4583
▁dị	-4584
▁release	-4585
ension	-4586
▁novels	-4587
▁considered	-4588
▁Indian	-4589
▁oil	-4590
outhern	-4591
icro	-4592
▁dream	-4593
▁learning	-4594
▁exactly	-4595
▁specific	-4596
▁terms	-4597
▁gas	-4598
▁board	-4599
sec	-4600
ượu	-4601
▁neigh	-4602
▁recipes	-4603
ki	-4604
off	-4605
▁regard	-4606
▁district	-4607
cer	-4608
▁species	-4609
▁scient	-4610
▁yourself	-4611
▁offer	-4612
sequ	-4613
▁gói	-4614
▁Mac	-4615
▁mẽ	-4616
▁provided	-4617
▁Brown	-4618
ibly	-4619
▁necess	-4620
▁region	-4621
▁Soc	-4622
▁player	-4623
▁pull	-4624
▁mê	-4625
▁Most	-4626
▁training	-4627
▁learned	-4628
key	-4629
▁lived	-4630
▁engine	-4631
▁deg	-4632
ỳnh	-4633
▁Quân	-4634
▁etc	-4635
▁gắng	-4636
▁reveal	-4637
▁candid	-4638
inese	-4639
acing	-4640
▁kèm	-4641
▁thuyết	-4642
ago	-4643
▁psych	-4644
▁ngon	-4645
▁sàng	-4646
▁trust	-4647
▁Cont	-4648
owing	-4649
▁Canada	-4650
▁pha	-4651
▁Thứ	-4652
▁Dù	-4653
▁laun	-4654
▁Web	-4655
▁tạp	-4656
▁Ben	-4657
▁independ	-4658
▁create	-4659
ironment	-4660
oyal	-4661
▁energy	-4662
▁purp	-4663
▁benef	-4664
▁absolutely	-4665
▁đám	-4666
▁section	-4667
▁ful	-4668
val	-4669
▁immediately	-4670
▁largest	-4671
ography	-4672
▁provides	-4673
pe	-4674
ady	-4675
▁particip	-4676
▁Ngay	-4677
▁ngư	-4678
▁gone	-4679
▁decl	-4680
rey	-4681
▁bal	-4682
apters	-4683
▁Then	-4684
▁print	-4685
▁huge	-4686
▁prison	-4687
▁battle	-4688
antic	-4689
▁disappointed	-4690
▁thải	-4691
▁News	-4692
▁sens	-4693
▁nguyện	-4694
▁Mag	-4695
▁remind	-4696
▁includes	-4697
ida	-4698
▁Di	-4699
izing	-4700
▁Jes	-4701
▁table	-4702
▁tri	-4703
▁dựa	-4704
ewh	-4705
▁Khánh	-4706
▁hom	-4707
light	-4708
▁Nha	-4709
ider	-4710
▁đoán	-4711
▁picture	-4712
▁fine	-4713
▁India	-4714
▁economy	-4715
▁despite	-4716
ees	-4717
▁groups	-4718
▁Pak	-4719
sing	-4720
▁CS	-4721
ena	-4722
▁Thực	-4723
▁oppos	-4724
▁coach	-4725
▁places	-4726
▁education	-4727
istry	-4728
▁IS	-4729
undred	-4730
▁trip	-4731
▁hor	-4732
▁hang	-4733
▁hous	-4734
ems	-4735
▁sạn	-4736
▁glad	-4737
▁players	-4738
▁GD	-4739
▁eye	-4740
▁hoàng	-4741
omas	-4742
▁Reg	-4743
▁ấm	-4744
▁sales	-4745
▁certainly	-4746
oogle	-4747
ims	-4748
▁đu	-4749
▁perhaps	-4750
▁unique	-4751
▁chàng	-4752
▁recently	-4753
riage	-4754
▁culture	-4755
▁Chương	-4756
imately	-4757
▁morning	-4758
▁mát	-4759
▁đòi	-4760
▁families	-4761
ING	-4762
▁cứng	-4763
▁situation	-4764
▁viêm	-4765
▁Camp	-4766
▁Gold	-4767
▁Rec	-4768
▁Tư	-4769
▁dương	-4770
▁ghế	-4771
eph	-4772
▁custom	-4773
▁lan	-4774
▁cưới	-4775
▁condition	-4776
hod	-4777
▁inn	-4778
▁đẳng	-4779
▁staff	-4780
▁Viện	-4781
ift	-4782
▁consum	-4783
oid	-4784
igr	-4785
▁bur	-4786
▁Chinese	-4787
▁nổ	-4788
▁nêu	-4789
▁ok	-4790
ha	-4791
▁rượu	-4792
▁production	-4793
ona	-4794
fort	-4795
come	-4796
▁nỗ	-4797
▁journal	-4798
▁value	-4799
▁Dũng	-4800
▁Lou	-4801
▁technology	-4802
▁khô	-4803
▁critic	-4804
▁Church	-4805
▁evidence	-4806
lying	-4807
▁faith	-4808
▁changes	-4809
▁birth	-4810
▁rights	-4811
▁Mary	-4812
▁attract	-4813
▁General	-4814
ging	-4815
edy	-4816
▁Los	-4817
▁chapters	-4818
▁túi	-4819
▁đe	-4820
▁Many	-4821
▁Jew	-4822
▁dig	-4823
▁feature	-4824
▁Bush	-4825
▁bill	-4826
lam	-4827
▁thẻ	-4828
éo	-4829
▁mãi	-4830
▁Bu	-4831
▁results	-4832
▁persp	-4833
▁guide	-4834
gy	-4835
udd	-4836
▁Triều	-4837
▁mạch	-4838
▁More	-4839
▁looks	-4840
▁stuff	-4841
ợt	-4842
▁rau	-4843
olic	-4844
ellig	-4845
▁mừng	-4846
utions	-4847
icles	-4848
orough	-4849
▁mơ	-4850
ittee	-4851
unch	-4852
▁lẫn	-4853
▁iPhone	-4854
▁trương	-4855
▁chair	-4856
▁starting	-4857
▁Ber	-4858
▁chậm	-4859
▁Rob	-4860
ota	-4861
▁Hóa	-4862
▁beyond	-4863
▁Kore	-4864
▁danger	-4865
▁arm	-4866
▁push	-4867
for	-4868
owers	-4869
▁professional	-4870
▁fasc	-4871
idents	-4872
▁hồng	-4873
▁Máy	-4874
▁emb	-4875
kn	-4876
▁huyết	-4877
▁giàu	-4878
▁Another	-4879
▁sweet	-4880
▁somewh	-4881
▁roll	-4882
▁tùy	-4883
▁Clinton	-4884
▁sỹ	-4885
▁model	-4886
▁scenes	-4887
▁Đầu	-4888
▁master	-4889
▁Hill	-4890
▁ủng	-4891
▁goal	-4892
▁reached	-4893
▁ngược	-4894
▁content	-4895
▁Art	-4896
▁tells	-4897
▁cell	-4898
icted	-4899
▁làn	-4900
▁associ	-4901
iving	-4902
gr	-4903
▁Face	-4904
▁Cùng	-4905
▁Cách	-4906
▁hair	-4907
▁Inter	-4908
ker	-4909
ius	-4910
▁insight	-4911
▁hề	-4912
ston	-4913
duction	-4914
▁dõi	-4915
▁khắp	-4916
▁filled	-4917
▁older	-4918
▁park	-4919
▁đáo	-4920
field	-4921
▁growing	-4922
▁Christmas	-4923
▁NH	-4924
▁tale	-4925
▁Vi	-4926
▁bại	-4927
me	-4928
▁sell	-4929
berg	-4930
▁forced	-4931
▁trừ	-4932
▁Kết	-4933
▁practice	-4934
▁AS	-4935
icip	-4936
▁Phil	-4937
▁student	-4938
▁suspense	-4939
others	-4940
▁Bí	-4941
▁Pakistan	-4942
eed	-4943
OS	-4944
amb	-4945
▁dụ	-4946
▁nắng	-4947
▁Ant	-4948
▁bè	-4949
▁struct	-4950
▁Vinh	-4951
▁Ấ	-4952
▁Department	-4953
▁Bel	-4954
▁encour	-4955
▁female	-4956
iller	-4957
▁intrig	-4958
▁khiển	-4959
▁send	-4960
▁Sài	-4961
▁helpful	-4962
▁towards	-4963
▁strength	-4964
▁smart	-4965
▁Thủy	-4966
▁obv	-4967
ole	-4968
uter	-4969
▁Court	-4970
▁Your	-4971
▁camera	-4972
▁Vĩnh	-4973
roy	-4974
▁Nghệ	-4975
▁Internet	-4976
▁waiting	-4977
▁sắt	-4978
iệng	-4979
▁Quý	-4980
▁cặp	-4981
▁scene	-4982
ogue	-4983
aries	-4984
itz	-4985
▁effort	-4986
▁băng	-4987
iment	-4988
▁Vậy	-4989
▁Mặc	-4990
▁arrest	-4991
▁Of	-4992
▁mist	-4993
▁overall	-4994
▁Miss	-4995
▁Cần	-4996
▁Phúc	-4997
▁thous	-4998
▁lành	-4999
▁newsp	-5000
resh	-5001
▁feet	-5002
▁path	-5003
▁đợi	-5004
▁fear	-5005
▁mũi	-5006
▁emerg	-5007
▁prem	-5008
ẳn	-5009
IC	-5010
▁yes	-5011
▁gold	-5012
▁tụ	-5013
▁River	-5014
▁hol	-5015
▁tệ	-5016
▁writes	-5017
bert	-5018
erve	-5019
▁allowed	-5020
▁Amaz	-5021
▁trưng	-5022
▁achie	-5023
▁Bay	-5024
▁đảng	-5025
▁Bill	-5026
▁hè	-5027
▁buồn	-5028
eated	-5029
▁regular	-5030
ậc	-5031
▁award	-5032
▁save	-5033
▁Trưởng	-5034
where	-5035
▁leaving	-5036
▁federal	-5037
▁gà	-5038
▁keeps	-5039
▁College	-5040
▁prevent	-5041
▁mostly	-5042
▁happens	-5043
▁assist	-5044
aded	-5045
▁rout	-5046
▁meaning	-5047
▁opportun	-5048
ella	-5049
▁Cảnh	-5050
▁THE	-5051
▁giảng	-5052
▁strateg	-5053
▁mount	-5054
▁lũ	-5055
▁ngôn	-5056
▁sequ	-5057
▁libr	-5058
▁convers	-5059
aur	-5060
▁bang	-5061
obile	-5062
▁ngang	-5063
▁hundred	-5064
▁Syria	-5065
▁Ac	-5066
▁society	-5067
▁seat	-5068
▁sort	-5069
▁miệng	-5070
▁ability	-5071
▁gấp	-5072
▁Phan	-5073
▁ask	-5074
▁Satur	-5075
▁sứ	-5076
▁resour	-5077
▁girls	-5078
▁fans	-5079
▁Hàng	-5080
ĐT	-5081
▁gương	-5082
▁vời	-5083
▁medical	-5084
▁Tex	-5085
race	-5086
▁protect	-5087
VN	-5088
▁cause	-5089
▁extra	-5090
▁ship	-5091
ựu	-5092
▁produced	-5093
▁nghìn	-5094
▁góc	-5095
▁Google	-5096
▁Pet	-5097
▁lối	-5098
▁địch	-5099
▁trùng	-5100
▁Scott	-5101
▁foreign	-5102
▁Ev	-5103
▁tường	-5104
▁kid	-5105
ishing	-5106
▁center	-5107
▁spokes	-5108
▁Cath	-5109
incip	-5110
bit	-5111
▁Paris	-5112
▁carry	-5113
▁alle	-5114
▁bờ	-5115
▁Act	-5116
isf	-5117
▁depth	-5118
▁phone	-5119
▁vết	-5120
▁nature	-5121
▁powerful	-5122
▁target	-5123
▁piece	-5124
▁stage	-5125
play	-5126
▁respect	-5127
road	-5128
▁nộp	-5129
▁Hen	-5130
▁bậc	-5131
▁eventually	-5132
▁Độ	-5133
▁nửa	-5134
▁entertaining	-5135
▁ĐH	-5136
▁schools	-5137
rian	-5138
▁bãi	-5139
▁Green	-5140
▁Ke	-5141
▁baby	-5142
▁purchased	-5143
lished	-5144
▁lưới	-5145
▁Pri	-5146
▁check	-5147
▁opening	-5148
▁Vân	-5149
cel	-5150
pper	-5151
▁Since	-5152
▁related	-5153
ager	-5154
▁Saturday	-5155
▁policy	-5156
aj	-5157
▁ơn	-5158
osh	-5159
▁lines	-5160
ania	-5161
▁range	-5162
▁date	-5163
▁cele	-5164
▁Apple	-5165
▁peace	-5166
BS	-5167
▁troo	-5168
▁Sun	-5169
▁central	-5170
TS	-5171
▁message	-5172
▁rời	-5173
▁offers	-5174
▁missing	-5175
▁Điện	-5176
▁Govern	-5177
esome	-5178
▁Mỗi	-5179
▁chục	-5180
▁Bởi	-5181
▁cong	-5182
▁sleep	-5183
▁hospital	-5184
EC	-5185
▁Gòn	-5186
▁Americans	-5187
▁Franc	-5188
▁dày	-5189
▁closed	-5190
itute	-5191
▁Frank	-5192
▁required	-5193
▁attacks	-5194
▁comments	-5195
▁đua	-5196
▁khuôn	-5197
▁opinion	-5198
aud	-5199
odd	-5200
ya	-5201
▁Inc	-5202
▁below	-5203
▁card	-5204
▁spend	-5205
▁xứ	-5206
▁tủ	-5207
▁global	-5208
airs	-5209
vey	-5210
▁chở	-5211
▁Thomas	-5212
ously	-5213
▁unl	-5214
▁Vir	-5215
▁thua	-5216
▁Cụ	-5217
▁Tất	-5218
▁joined	-5219
▁produc	-5220
ano	-5221
▁District	-5222
▁fourth	-5223
▁ahead	-5224
▁HĐ	-5225
unk	-5226
▁kháng	-5227
▁Congress	-5228
▁Tri	-5229
▁hẳn	-5230
▁cat	-5231
▁expert	-5232
▁Kn	-5233
▁Smith	-5234
▁setting	-5235
▁clearly	-5236
▁Army	-5237
▁pin	-5238
isl	-5239
ests	-5240
LL	-5241
lands	-5242
▁Two	-5243
iliar	-5244
▁lower	-5245
▁environment	-5246
▁risk	-5247
▁telling	-5248
▁appoint	-5249
▁kêu	-5250
▁rửa	-5251
ping	-5252
▁Khoa	-5253
▁demand	-5254
▁ordered	-5255
▁lots	-5256
▁raised	-5257
▁demon	-5258
▁Sa	-5259
▁twists	-5260
order	-5261
▁established	-5262
▁method	-5263
▁tool	-5264
▁lục	-5265
▁determ	-5266
▁Other	-5267
NT	-5268
▁đấy	-5269
▁thận	-5270
▁Bank	-5271
▁currently	-5272
▁Germany	-5273
▁Bài	-5274
▁Angeles	-5275
▁meant	-5276
ining	-5277
▁marriage	-5278
▁CH	-5279
▁trấn	-5280
▁successful	-5281
▁Định	-5282
▁Tre	-5283
▁seeing	-5284
▁talking	-5285
▁Port	-5286
▁reports	-5287
▁thoải	-5288
omet	-5289
▁Gal	-5290
raw	-5291
▁background	-5292
▁twist	-5293
▁passed	-5294
▁whom	-5295
▁useful	-5296
▁showed	-5297
▁potential	-5298
▁Ital	-5299
▁cry	-5300
ety	-5301
▁cấm	-5302
ancy	-5303
uct	-5304
▁thước	-5305
▁cơn	-5306
▁đức	-5307
▁edition	-5308
▁natural	-5309
▁SN	-5310
▁Afghanistan	-5311
▁cases	-5312
inating	-5313
▁khung	-5314
▁Tal	-5315
▁growth	-5316
▁legal	-5317
▁vote	-5318
▁Kar	-5319
▁disp	-5320
▁Ty	-5321
▁finds	-5322
▁bom	-5323
▁Council	-5324
▁err	-5325
▁Wal	-5326
▁Tam	-5327
▁ngừng	-5328
▁hung	-5329
▁quên	-5330
▁căng	-5331
▁terror	-5332
▁ngàn	-5333
▁indic	-5334
▁Oh	-5335
▁thầu	-5336
▁Ngoại	-5337
▁Sal	-5338
▁đừng	-5339
▁Lee	-5340
ka	-5341
▁vườn	-5342
ipped	-5343
▁brief	-5344
▁vong	-5345
▁PC	-5346
▁Facebook	-5347
▁Hall	-5348
AM	-5349
▁enjoyable	-5350
▁veh	-5351
▁tend	-5352
▁earth	-5353
▁credit	-5354
▁ung	-5355
inary	-5356
▁heavy	-5357
ocks	-5358
▁ống	-5359
▁Tom	-5360
▁performance	-5361
▁west	-5362
▁Super	-5363
▁Đào	-5364
ớp	-5365
▁slight	-5366
▁Sl	-5367
ords	-5368
▁improve	-5369
ville	-5370
▁pulled	-5371
isions	-5372
▁nỗi	-5373
▁nhiêu	-5374
▁statement	-5375
▁anal	-5376
oof	-5377
▁bão	-5378
▁phán	-5379
▁hào	-5380
▁transl	-5381
ien	-5382
elled	-5383
▁caught	-5384
▁TT	-5385
▁suc	-5386
▁Nó	-5387
atory	-5388
▁corre	-5389
▁Biên	-5390
ruct	-5391
▁arrived	-5392
▁Mexico	-5393
uments	-5394
▁duyệt	-5395
▁length	-5396
▁Học	-5397
▁fit	-5398
▁sal	-5399
▁Texas	-5400
ướp	-5401
owd	-5402
▁acqu	-5403
▁ir	-5404
▁starts	-5405
▁paid	-5406
▁Richard	-5407
▁perspective	-5408
▁object	-5409
▁pen	-5410
▁sổ	-5411
owed	-5412
▁reality	-5413
▁confl	-5414
▁Party	-5415
▁wanting	-5416
▁extremely	-5417
▁Str	-5418
▁phil	-5419
▁Huy	-5420
▁Tâm	-5421
▁cris	-5422
▁increase	-5423
▁impact	-5424
ộm	-5425
que	-5426
▁tả	-5427
▁đợt	-5428
▁ult	-5429
▁uses	-5430
▁Center	-5431
▁dứt	-5432
▁wide	-5433
▁prices	-5434
▁wear	-5435
▁bồi	-5436
▁hiệp	-5437
▁Star	-5438
▁Song	-5439
▁súng	-5440
▁Grand	-5441
▁tan	-5442
cy	-5443
▁nhuận	-5444
▁clean	-5445
▁choice	-5446
▁answer	-5447
▁positive	-5448
cial	-5449
▁remain	-5450
abor	-5451
▁Union	-5452
▁Britain	-5453
▁fing	-5454
▁beat	-5455
▁Cộng	-5456
ca	-5457
▁hủ	-5458
▁bây	-5459
▁chào	-5460
▁Quyết	-5461
ters	-5462
▁behav	-5463
▁Jesus	-5464
▁Thường	-5465
▁intellig	-5466
▁Secret	-5467
▁bắn	-5468
▁features	-5469
▁Cons	-5470
▁recover	-5471
▁administration	-5472
▁mùi	-5473
▁princip	-5474
ification	-5475
▁rare	-5476
▁Service	-5477
▁Là	-5478
lines	-5479
▁occur	-5480
▁bott	-5481
▁gradu	-5482
▁exchange	-5483
▁Flor	-5484
▁vac	-5485
▁thorough	-5486
iced	-5487
▁Lúc	-5488
uf	-5489
▁firm	-5490
▁dial	-5491
▁Đường	-5492
US	-5493
▁winning	-5494
ware	-5495
▁becomes	-5496
▁According	-5497
▁finding	-5498
▁Big	-5499
▁chặn	-5500
▁Real	-5501
▁Law	-5502
orry	-5503
▁Peter	-5504
kr	-5505
▁Dân	-5506
▁east	-5507
▁haven	-5508
▁adventure	-5509
▁Wil	-5510
▁Vương	-5511
▁install	-5512
▁mouth	-5513
▁epis	-5514
▁lọc	-5515
▁Bible	-5516
▁trào	-5517
▁surround	-5518
▁chảy	-5519
▁und	-5520
▁jump	-5521
eat	-5522
▁phó	-5523
arian	-5524
▁failed	-5525
▁designed	-5526
OV	-5527
▁names	-5528
▁stock	-5529
▁promot	-5530
▁Day	-5531
▁Vụ	-5532
▁forg	-5533
▁fif	-5534
▁fix	-5535
▁wild	-5536
▁qual	-5537
▁wid	-5538
▁pan	-5539
▁ẩm	-5540
▁Mos	-5541
▁bữa	-5542
ura	-5543
▁advice	-5544
▁ép	-5545
▁Ấn	-5546
▁đài	-5547
▁Del	-5548
▁arms	-5549
ores	-5550
▁edge	-5551
▁rob	-5552
cl	-5553
idae	-5554
▁prior	-5555
add	-5556
▁daily	-5557
▁Mont	-5558
osp	-5559
▁xinh	-5560
ini	-5561
▁please	-5562
IA	-5563
erry	-5564
▁cm	-5565
uit	-5566
▁trữ	-5567
▁Vict	-5568
ID	-5569
▁er	-5570
▁trông	-5571
▁signed	-5572
ilipp	-5573
▁Vin	-5574
▁kịch	-5575
▁Once	-5576
▁celebr	-5577
vable	-5578
▁Mel	-5579
▁gọn	-5580
▁Giải	-5581
▁tắm	-5582
▁aware	-5583
▁đãi	-5584
▁bụng	-5585
▁totally	-5586
▁feels	-5587
▁plant	-5588
▁Ple	-5589
▁green	-5590
▁occas	-5591
akers	-5592
▁Russian	-5593
apore	-5594
▁hộp	-5595
▁reference	-5596
ấc	-5597
▁Ol	-5598
▁wood	-5599
▁ign	-5600
▁Nav	-5601
▁breath	-5602
▁Quận	-5603
▁già	-5604
▁Số	-5605
ented	-5606
▁floor	-5607
▁Minister	-5608
mit	-5609
▁drive	-5610
▁library	-5611
▁troops	-5612
ani	-5613
▁ĐT	-5614
▁linked	-5615
▁Thiết	-5616
▁purchase	-5617
friend	-5618
▁Mặt	-5619
▁Mur	-5620
▁basic	-5621
▁PV	-5622
▁Sil	-5623
▁hẹn	-5624
reek	-5625
▁hảo	-5626
▁weak	-5627
imb	-5628
▁incred	-5629
▁supposed	-5630
▁trade	-5631
▁Braz	-5632
▁Phi	-5633
rog	-5634
▁minute	-5635
▁Like	-5636
▁rối	-5637
▁Quy	-5638
ola	-5639
▁Mu	-5640
▁workers	-5641
▁Thuận	-5642
▁Western	-5643
ero	-5644
▁applic	-5645
▁grab	-5646
IN	-5647
▁Def	-5648
▁Vietnam	-5649
▁crime	-5650
II	-5651
▁corn	-5652
▁walk	-5653
▁surprised	-5654
▁fresh	-5655
▁violence	-5656
▁TPHCM	-5657
ãng	-5658
▁lỗ	-5659
tain	-5660
▁lưng	-5661
▁Jose	-5662
▁drink	-5663
▁laws	-5664
./	-5665
▁ren	-5666
▁religious	-5667
▁purpose	-5668
ocked	-5669
▁presented	-5670
▁leaves	-5671
▁senior	-5672
▁Div	-5673
mark	-5674
▁Jul	-5675
▁lẻ	-5676
▁Singapore	-5677
dden	-5678
▁khấu	-5679
kg	-5680
▁satisf	-5681
▁fighting	-5682
▁CP	-5683
▁giết	-5684
anned	-5685
▁Philipp	-5686
AC	-5687
▁familiar	-5688
▁subst	-5689
▁ngọt	-5690
▁điển	-5691
▁source	-5692
▁biggest	-5693
▁becoming	-5694
▁Amazon	-5695
▁advert	-5696
▁sem	-5697
▁ends	-5698
▁Japanese	-5699
▁nấu	-5700
▁anc	-5701
▁Virgin	-5702
▁sun	-5703
iling	-5704
▁thiểu	-5705
▁cơm	-5706
▁bột	-5707
ris	-5708
ụt	-5709
▁Arab	-5710
▁horr	-5711
▁tung	-5712
▁cú	-5713
▁remains	-5714
▁Africa	-5715
craft	-5716
▁Trump	-5717
▁dao	-5718
▁Hist	-5719
▁train	-5720
▁significant	-5721
▁Chị	-5722
▁huấn	-5723
▁teams	-5724
▁thờ	-5725
▁altern	-5726
▁introduced	-5727
▁weap	-5728
▁soul	-5729
▁detailed	-5730
▁kênh	-5731
▁chấm	-5732
▁Op	-5733
▁univers	-5734
▁multip	-5735
▁exam	-5736
▁anti	-5737
▁network	-5738
▁offered	-5739
omen	-5740
▁cru	-5741
▁eth	-5742
ooth	-5743
▁mer	-5744
▁Int	-5745
▁Qua	-5746
▁Win	-5747
▁thang	-5748
▁document	-5749
liam	-5750
▁rủ	-5751
itude	-5752
▁thập	-5753
▁male	-5754
▁trib	-5755
▁xăng	-5756
▁Brazil	-5757
▁túy	-5758
▁Each	-5759
▁vỡ	-5760
ado	-5761
isher	-5762
ênh	-5763
▁fully	-5764
▁picked	-5765
▁Republican	-5766
▁sexual	-5767
▁sudden	-5768
ounds	-5769
▁debut	-5770
▁stopped	-5771
▁Democratic	-5772
▁screen	-5773
▁Tình	-5774
▁runs	-5775
▁Đài	-5776
▁emotional	-5777
▁Lat	-5778
▁mission	-5779
▁CNN	-5780
▁minor	-5781
▁Tur	-5782
▁thách	-5783
▁conflict	-5784
▁products	-5785
▁vir	-5786
▁feelings	-5787
én	-5788
▁mắn	-5789
▁Sản	-5790
li	-5791
▁dậy	-5792
▁nuc	-5793
agement	-5794
▁Royal	-5795
▁blog	-5796
▁catch	-5797
liament	-5798
▁Wind	-5799
▁wit	-5800
▁talks	-5801
▁chạm	-5802
face	-5803
▁pieces	-5804
mm	-5805
▁rules	-5806
▁dise	-5807
▁African	-5808
▁Phước	-5809
▁xương	-5810
apers	-5811
▁quỹ	-5812
▁fantasy	-5813
IT	-5814
▁thuyền	-5815
▁Quản	-5816
▁Ukr	-5817
▁caused	-5818
▁poll	-5819
▁ngã	-5820
▁Đội	-5821
▁rail	-5822
▁Any	-5823
▁sơn	-5824
▁note	-5825
▁hủy	-5826
▁đỉnh	-5827
▁Louis	-5828
▁Ron	-5829
▁mai	-5830
▁miles	-5831
▁Net	-5832
▁radio	-5833
▁Stud	-5834
▁thoughts	-5835
▁kì	-5836
iance	-5837
▁covered	-5838
▁grew	-5839
phone	-5840
▁degree	-5841
▁Championship	-5842
▁crisis	-5843
▁Hữu	-5844
▁recommended	-5845
▁Trương	-5846
▁Their	-5847
using	-5848
erous	-5849
▁executive	-5850
▁traditional	-5851
▁Sar	-5852
earch	-5853
▁nine	-5854
▁Vào	-5855
urance	-5856
▁consist	-5857
▁Wall	-5858
▁Thượng	-5859
▁đàm	-5860
asse	-5861
▁Russia	-5862
well	-5863
ụy	-5864
▁apparent	-5865
▁ẩn	-5866
▁efforts	-5867
▁tiềm	-5868
▁Islam	-5869
▁CL	-5870
▁Roman	-5871
▁victory	-5872
down	-5873
▁Võ	-5874
iếc	-5875
▁speed	-5876
▁Gh	-5877
▁cool	-5878
▁Carol	-5879
▁phức	-5880
▁Lưu	-5881
▁drama	-5882
▁Association	-5883
▁command	-5884
▁remained	-5885
▁Chic	-5886
▁Bur	-5887
▁Ri	-5888
▁commer	-5889
▁xưa	-5890
▁loạn	-5891
▁drawn	-5892
oz	-5893
▁placed	-5894
▁levels	-5895
ịa	-5896
▁bối	-5897
▁Both	-5898
▁Florida	-5899
▁appeal	-5900
▁ví	-5901
▁thù	-5902
▁turning	-5903
va	-5904
ashion	-5905
▁phấn	-5906
rid	-5907
▁Met	-5908
uty	-5909
▁thượng	-5910
▁continues	-5911
la	-5912
anda	-5913
▁khích	-5914
▁computer	-5915
arden	-5916
▁god	-5917
atever	-5918
▁HCM	-5919
▁Tin	-5920
▁contact	-5921
porary	-5922
▁stick	-5923
▁watching	-5924
▁blue	-5925
▁Duy	-5926
yer	-5927
▁burn	-5928
▁nhựa	-5929
▁mach	-5930
▁moments	-5931
osoph	-5932
▁Steph	-5933
▁analy	-5934
▁weight	-5935
▁hell	-5936
▁frequ	-5937
▁agency	-5938
ụn	-5939
▁begins	-5940
▁buôn	-5941
▁khoán	-5942
▁CD	-5943
▁thép	-5944
▁believed	-5945
▁bò	-5946
▁experiences	-5947
▁Tiền	-5948
▁Charles	-5949
▁Hot	-5950
azine	-5951
▁phú	-5952
▁bó	-5953
▁vỏ	-5954
burg	-5955
▁construction	-5956
▁chem	-5957
▁bound	-5958
▁Police	-5959
▁mực	-5960
▁teacher	-5961
▁TNH	-5962
▁kín	-5963
▁Bec	-5964
▁Thắng	-5965
eder	-5966
bon	-5967
▁connect	-5968
▁compared	-5969
▁Tim	-5970
eech	-5971
ơm	-5972
▁Sáng	-5973
iles	-5974
▁tast	-5975
▁destroy	-5976
▁surprise	-5977
anish	-5978
▁TNHH	-5979
▁reflect	-5980
▁Cap	-5981
▁movement	-5982
▁mort	-5983
▁lâm	-5984
▁elected	-5985
▁appears	-5986
▁Giao	-5987
▁tổn	-5988
▁Kind	-5989
▁Victor	-5990
arsh	-5991
ortunately	-5992
▁log	-5993
▁fascinating	-5994
▁đuổi	-5995
▁thank	-5996
oles	-5997
onse	-5998
▁gỡ	-5999
▁brings	-6000
▁mine	-6001
▁inch	-6002
▁BH	-6003
▁soldiers	-6004
▁communic	-6005
▁apart	-6006
aped	-6007
set	-6008
board	-6009
ysis	-6010
▁adop	-6011
yan	-6012
▁ble	-6013
▁examples	-6014
ship	-6015
▁spot	-6016
▁san	-6017
▁Luc	-6018
▁Ann	-6019
▁brain	-6020
▁ven	-6021
▁tang	-6022
▁putting	-6023
▁street	-6024
ụi	-6025
▁prec	-6026
bre	-6027
ses	-6028
▁Lord	-6029
▁dom	-6030
▁numbers	-6031
itiz	-6032
oes	-6033
▁Xây	-6034
▁People	-6035
▁Dar	-6036
▁Jackson	-6037
▁Cầu	-6038
▁broken	-6039
kin	-6040
▁Chicago	-6041
▁rose	-6042
▁treatment	-6043
CP	-6044
▁ur	-6045
EO	-6046
▁claims	-6047
▁realize	-6048
▁spending	-6049
▁hư	-6050
▁bề	-6051
▁Atl	-6052
▁stood	-6053
▁rác	-6054
▁predict	-6055
▁regul	-6056
more	-6057
▁majority	-6058
▁Senate	-6059
gar	-6060
▁gạo	-6061
▁ut	-6062
▁hoping	-6063
▁dinh	-6064
▁Fore	-6065
▁calls	-6066
▁trứng	-6067
▁hứng	-6068
▁volume	-6069
▁sitting	-6070
▁Nông	-6071
▁king	-6072
lor	-6073
▁increasing	-6074
▁comfort	-6075
▁standard	-6076
erved	-6077
▁hurt	-6078
▁kick	-6079
▁charge	-6080
▁actual	-6081
▁homes	-6082
▁Sum	-6083
▁cold	-6084
▁fantastic	-6085
▁trần	-6086
▁Lào	-6087
iant	-6088
rible	-6089
▁tán	-6090
▁Cuộc	-6091
▁phẫu	-6092
XH	-6093
▁onto	-6094
▁relationships	-6095
▁quang	-6096
gged	-6097
isters	-6098
anta	-6099
▁counter	-6100
▁manager	-6101
▁progress	-6102
▁Phần	-6103
▁Lương	-6104
▁thousands	-6105
▁Jim	-6106
▁necessary	-6107
▁bốn	-6108
▁Wood	-6109
▁Chiến	-6110
▁tough	-6111
▁army	-6112
▁doubt	-6113
▁wouldn	-6114
▁willing	-6115
▁Ire	-6116
▁Trọng	-6117
vant	-6118
ipp	-6119
▁ngập	-6120
irl	-6121
▁Martin	-6122
▁require	-6123
kend	-6124
▁tá	-6125
sea	-6126
▁property	-6127
▁officer	-6128
▁programs	-6129
▁vamp	-6130
▁Ly	-6131
▁sorry	-6132
▁trouble	-6133
▁evil	-6134
ek	-6135
▁awesome	-6136
▁Company	-6137
▁Chu	-6138
ios	-6139
▁ver	-6140
▁reasons	-6141
▁holding	-6142
itation	-6143
▁helps	-6144
▁gri	-6145
▁block	-6146
▁Italy	-6147
▁lông	-6148
▁island	-6149
▁expand	-6150
▁agreed	-6151
▁receive	-6152
ube	-6153
▁diệt	-6154
▁oh	-6155
venue	-6156
ading	-6157
▁famous	-6158
▁bomb	-6159
▁Toàn	-6160
▁generally	-6161
▁sched	-6162
▁guys	-6163
▁discovered	-6164
▁Sir	-6165
▁Bác	-6166
inct	-6167
▁Hơn	-6168
▁hồn	-6169
▁additional	-6170
▁arr	-6171
▁magic	-6172
▁uns	-6173
▁email	-6174
▁Tor	-6175
▁writers	-6176
▁treo	-6177
▁previously	-6178
▁nuclear	-6179
▁primary	-6180
▁Francis	-6181
▁covers	-6182
▁management	-6183
how	-6184
▁đậu	-6185
izes	-6186
▁keeping	-6187
▁instru	-6188
ufact	-6189
▁Press	-6190
wise	-6191
▁lúa	-6192
▁independent	-6193
▁Lộc	-6194
▁Tháng	-6195
▁artist	-6196
▁ens	-6197
▁Island	-6198
▁Hình	-6199
ita	-6200
▁chấn	-6201
▁politics	-6202
▁exciting	-6203
▁safe	-6204
▁response	-6205
▁competition	-6206
▁Pre	-6207
bour	-6208
▁pressure	-6209
▁Huế	-6210
▁Auth	-6211
▁Henry	-6212
▁autom	-6213
▁Ngô	-6214
▁giỏi	-6215
estival	-6216
▁boys	-6217
▁description	-6218
▁plays	-6219
▁figures	-6220
▁Central	-6221
▁giọng	-6222
▁hàm	-6223
▁completed	-6224
▁demonstr	-6225
▁Why	-6226
▁tông	-6227
▁contains	-6228
▁photos	-6229
▁der	-6230
udget	-6231
▁đập	-6232
▁Road	-6233
illing	-6234
oms	-6235
▁jobs	-6236
▁fle	-6237
▁thở	-6238
▁spread	-6239
▁buying	-6240
▁Nov	-6241
▁worst	-6242
▁trial	-6243
▁Best	-6244
igned	-6245
elle	-6246
▁mệnh	-6247
▁authorities	-6248
▁tràn	-6249
▁Holly	-6250
▁bul	-6251
▁physical	-6252
▁dám	-6253
▁mentioned	-6254
▁okay	-6255
▁Life	-6256
GT	-6257
orter	-6258
▁Under	-6259
▁rise	-6260
▁EU	-6261
▁recorded	-6262
▁hỏng	-6263
▁myster	-6264
▁Dis	-6265
▁shut	-6266
▁scored	-6267
▁somewhat	-6268
▁younger	-6269
▁Post	-6270
▁pray	-6271
▁McCain	-6272
CS	-6273
CN	-6274
▁owned	-6275
ym	-6276
▁pu	-6277
▁Old	-6278
▁tight	-6279
▁cướp	-6280
▁studies	-6281
▁cancer	-6282
▁Malays	-6283
▁Sinh	-6284
▁Ca	-6285
▁Joe	-6286
▁investigation	-6287
▁formed	-6288
▁eat	-6289
▁van	-6290
▁organization	-6291
▁Thank	-6292
▁founded	-6293
▁actions	-6294
▁overs	-6295
ionally	-6296
ựng	-6297
andon	-6298
▁Rock	-6299
▁Micro	-6300
▁scr	-6301
ault	-6302
▁hate	-6303
za	-6304
▁resc	-6305
ém	-6306
oil	-6307
▁hùng	-6308
▁lô	-6309
▁cars	-6310
▁bù	-6311
▁estim	-6312
ifying	-6313
▁Hel	-6314
▁khen	-6315
body	-6316
▁Mer	-6317
ns	-6318
▁opportunity	-6319
ams	-6320
▁emotions	-6321
▁larger	-6322
oman	-6323
▁kiên	-6324
oti	-6325
▁Tiếp	-6326
▁thơm	-6327
urd	-6328
▁dropped	-6329
aked	-6330
▁bag	-6331
▁weekend	-6332
▁avoid	-6333
▁Club	-6334
▁managed	-6335
▁activities	-6336
▁Cường	-6337
▁songs	-6338
▁schol	-6339
▁cựu	-6340
▁Đa	-6341
▁Xe	-6342
▁skin	-6343
ctors	-6344
▁smile	-6345
▁trại	-6346
▁Jo	-6347
▁spokesman	-6348
uries	-6349
▁conditions	-6350
▁limited	-6351
▁Pan	-6352
▁shown	-6353
▁double	-6354
▁Chel	-6355
rel	-6356
▁mill	-6357
▁tròn	-6358
▁Scot	-6359
▁Commun	-6360
sts	-6361
▁Indones	-6362
▁solid	-6363
▁Jones	-6364
▁Georg	-6365
uses	-6366
illa	-6367
ender	-6368
▁conclus	-6369
▁photograph	-6370
gal	-6371
▁Ireland	-6372
▁Catholic	-6373
▁speech	-6374
▁spiritual	-6375
▁multiple	-6376
idden	-6377
▁thổ	-6378
▁correct	-6379
▁operations	-6380
aus	-6381
▁fort	-6382
▁theory	-6383
iven	-6384
▁explain	-6385
▁costs	-6386
OM	-6387
▁AT	-6388
▁Play	-6389
▁mạc	-6390
itter	-6391
▁Up	-6392
▁har	-6393
▁Hay	-6394
▁legisl	-6395
▁banks	-6396
▁originally	-6397
▁breaking	-6398
▁crew	-6399
itution	-6400
IV	-6401
▁tây	-6402
▁broke	-6403
▁Top	-6404
▁coast	-6405
▁slowly	-6406
km	-6407
▁respond	-6408
de	-6409
▁ge	-6410
▁cột	-6411
▁não	-6412
▁xâm	-6413
▁reform	-6414
▁facts	-6415
▁whatever	-6416
▁Hạ	-6417
▁ngực	-6418
▁Max	-6419
▁Italian	-6420
▁Cổ	-6421
▁contem	-6422
▁sport	-6423
▁huống	-6424
▁cute	-6425
▁systems	-6426
▁letter	-6427
▁academ	-6428
▁relat	-6429
▁sea	-6430
edd	-6431
▁Er	-6432
▁die	-6433
▁philosoph	-6434
tr	-6435
▁Spanish	-6436
anted	-6437
▁crowd	-6438
che	-6439
▁knowing	-6440
▁vua	-6441
▁storyline	-6442
▁usual	-6443
▁classic	-6444
semb	-6445
▁increased	-6446
▁era	-6447
rol	-6448
▁Kenn	-6449
▁Mass	-6450
▁slightly	-6451
▁Prof	-6452
▁excited	-6453
edic	-6454
▁thảm	-6455
▁pattern	-6456
▁nhàng	-6457
▁direction	-6458
▁farm	-6459
▁exerc	-6460
▁display	-6461
▁tốn	-6462
▁HD	-6463
▁via	-6464
ables	-6465
▁Bùi	-6466
▁Tỉnh	-6467
▁craz	-6468
▁delight	-6469
▁tỏa	-6470
▁conserv	-6471
▁cài	-6472
ette	-6473
ste	-6474
▁twice	-6475
▁tắt	-6476
▁league	-6477
▁purs	-6478
▁điệu	-6479
▁animals	-6480
▁Charl	-6481
▁Please	-6482
▁Overall	-6483
▁minister	-6484
▁dọa	-6485
▁aren	-6486
EN	-6487
vest	-6488
▁bird	-6489
duce	-6490
▁Ell	-6491
▁planned	-6492
▁nhảy	-6493
▁Australian	-6494
▁Bằng	-6495
▁Arch	-6496
▁conference	-6497
▁thự	-6498
▁southern	-6499
▁trà	-6500
▁internet	-6501
house	-6502
▁Bob	-6503
▁editor	-6504
▁explan	-6505
▁plat	-6506
▁connection	-6507
▁TS	-6508
▁highest	-6509
mission	-6510
▁--	-6511
▁manufact	-6512
▁Làm	-6513
▁showing	-6514
▁ôm	-6515
▁quiet	-6516
load	-6517
▁occup	-6518
▁odd	-6519
▁Nghĩa	-6520
▁lose	-6521
▁income	-6522
▁accur	-6523
▁Gar	-6524
▁walked	-6525
ooper	-6526
▁Sub	-6527
▁wealth	-6528
▁elements	-6529
▁Last	-6530
iger	-6531
▁chùa	-6532
▁Penn	-6533
▁Jud	-6534
▁Harry	-6535
▁Mount	-6536
▁trạm	-6537
▁accident	-6538
▁Tay	-6539
ulous	-6540
▁loud	-6541
▁variety	-6542
▁propos	-6543
▁belief	-6544
▁mưu	-6545
ogy	-6546
▁hoảng	-6547
▁dược	-6548
▁ride	-6549
ipping	-6550
▁khóc	-6551
▁genre	-6552
▁lão	-6553
OO	-6554
▁Games	-6555
▁formula	-6556
▁Lib	-6557
▁remark	-6558
▁prefer	-6559
illed	-6560
▁plus	-6561
▁THPT	-6562
▁cản	-6563
▁ong	-6564
▁killing	-6565
los	-6566
▁hâm	-6567
▁Ash	-6568
▁Malaysia	-6569
▁providing	-6570
▁Cả	-6571
▁mệt	-6572
▁helping	-6573
▁fashion	-6574
▁glass	-6575
▁hoang	-6576
▁appl	-6577
▁Rad	-6578
▁chúc	-6579
▁shares	-6580
▁pal	-6581
▁contain	-6582
▁cổng	-6583
▁Commission	-6584
▁trộm	-6585
AND	-6586
▁Haw	-6587
▁Tour	-6588
itamin	-6589
▁phái	-6590
time	-6591
▁standing	-6592
▁khẩn	-6593
▁khuẩn	-6594
▁Trans	-6595
▁passion	-6596
▁officers	-6597
▁guard	-6598
▁hall	-6599
▁tĩnh	-6600
▁batt	-6601
▁shar	-6602
▁annual	-6603
▁Author	-6604
▁Nói	-6605
▁mut	-6606
▁Mod	-6607
▁trail	-6608
▁Prem	-6609
▁bọn	-6610
▁kiss	-6611
▁thoáng	-6612
ooting	-6613
▁amb	-6614
▁Olympic	-6615
▁sốt	-6616
▁Than	-6617
▁Despite	-6618
▁pun	-6619
zen	-6620
▁Mẹ	-6621
den	-6622
▁đế	-6623
▁pet	-6624
▁Johnson	-6625
▁safety	-6626
▁mụn	-6627
ùm	-6628
▁revealed	-6629
▁túc	-6630
▁Virginia	-6631
▁topic	-6632
▁Nhất	-6633
▁establish	-6634
▁alive	-6635
▁Out	-6636
▁serve	-6637
▁hiếm	-6638
▁Mat	-6639
▁giày	-6640
▁challenge	-6641
▁analysis	-6642
▁Sur	-6643
▁spoke	-6644
▁kem	-6645
▁presidential	-6646
▁Our	-6647
▁projects	-6648
▁din	-6649
▁citiz	-6650
▁article	-6651
▁sexy	-6652
▁carried	-6653
rave	-6654
ros	-6655
▁Who	-6656
▁Bet	-6657
▁Conn	-6658
▁skills	-6659
▁Kế	-6660
▁brill	-6661
TF	-6662
▁teaching	-6663
▁sắm	-6664
ịn	-6665
▁cant	-6666
▁planning	-6667
ule	-6668
▁decades	-6669
▁ton	-6670
▁none	-6671
▁engaging	-6672
▁Mot	-6673
▁charges	-6674
▁doctor	-6675
▁warm	-6676
▁appointed	-6677
ils	-6678
▁Philippines	-6679
arts	-6680
cript	-6681
▁frustr	-6682
▁chăn	-6683
▁Lễ	-6684
EL	-6685
thlet	-6686
rial	-6687
▁hoá	-6688
▁interact	-6689
CH	-6690
▁losing	-6691
▁Sams	-6692
inn	-6693
▁Sand	-6694
▁bare	-6695
▁directly	-6696
▁neighbor	-6697
▁Tiểu	-6698
ashed	-6699
▁trúng	-6700
▁Hồi	-6701
▁trầm	-6702
▁Lai	-6703
▁Chelsea	-6704
▁Are	-6705
gent	-6706
▁Government	-6707
▁Ill	-6708
▁Yes	-6709
▁appreciate	-6710
ias	-6711
▁nhắn	-6712
▁corpor	-6713
▁Van	-6714
iana	-6715
▁brand	-6716
▁Dư	-6717
nament	-6718
ends	-6719
▁đốt	-6720
chester	-6721
mon	-6722
▁poet	-6723
▁Kat	-6724
while	-6725
▁enem	-6726
reh	-6727
▁trích	-6728
▁border	-6729
▁Boy	-6730
▁tân	-6731
itect	-6732
▁audience	-6733
▁vải	-6734
▁đệ	-6735
▁trật	-6736
▁Second	-6737
▁noted	-6738
▁meas	-6739
▁tháo	-6740
▁gợi	-6741
▁giường	-6742
▁adults	-6743
▁sides	-6744
▁Because	-6745
icient	-6746
▁Mới	-6747
▁broadcast	-6748
▁Jon	-6749
ỗng	-6750
▁mỏi	-6751
▁upd	-6752
▁markets	-6753
▁difference	-6754
icket	-6755
▁distrib	-6756
▁notes	-6757
▁Loan	-6758
▁Look	-6759
▁experienced	-6760
▁flight	-6761
▁canh	-6762
ja	-6763
▁practical	-6764
▁đoạt	-6765
▁stated	-6766
▁Hệ	-6767
▁Lao	-6768
▁Rev	-6769
▁pace	-6770
▁sôi	-6771
odes	-6772
▁missed	-6773
▁Here	-6774
▁đai	-6775
▁af	-6776
▁listed	-6777
▁politic	-6778
▁greater	-6779
▁steps	-6780
▁domin	-6781
▁bạch	-6782
▁Health	-6783
hi	-6784
igan	-6785
iques	-6786
▁vẽ	-6787
▁assum	-6788
▁bond	-6789
▁budget	-6790
▁tiếc	-6791
▁succeed	-6792
▁cas	-6793
▁Cop	-6794
▁structure	-6795
▁Hum	-6796
▁numerous	-6797
▁investment	-6798
▁Canad	-6799
▁narrative	-6800
▁Bang	-6801
▁trục	-6802
▁pil	-6803
ivity	-6804
▁disease	-6805
▁gather	-6806
annel	-6807
▁Ros	-6808
▁drag	-6809
▁freed	-6810
▁judge	-6811
ressive	-6812
▁xóm	-6813
▁đậm	-6814
▁Ai	-6815
▁bạo	-6816
▁Vol	-6817
▁fol	-6818
▁Earth	-6819
itar	-6820
▁liber	-6821
▁transfer	-6822
▁Institute	-6823
▁separate	-6824
▁gan	-6825
egr	-6826
▁function	-6827
aire	-6828
▁rule	-6829
▁Add	-6830
▁Cái	-6831
▁realized	-6832
▁Korea	-6833
▁funds	-6834
▁Quan	-6835
▁CLB	-6836
▁nhãn	-6837
▁restaur	-6838
▁Det	-6839
▁Samsung	-6840
▁goals	-6841
▁witness	-6842
▁Den	-6843
▁hứa	-6844
▁Tử	-6845
▁Tàu	-6846
▁Daniel	-6847
▁follows	-6848
▁Thánh	-6849
▁western	-6850
abeth	-6851
▁cảng	-6852
irty	-6853
▁Exc	-6854
▁worse	-6855
west	-6856
▁rid	-6857
▁UP	-6858
▁creating	-6859
▁tel	-6860
▁cờ	-6861
▁trốn	-6862
▁sports	-6863
▁reads	-6864
▁Cub	-6865
▁Biển	-6866
▁ye	-6867
▁Cast	-6868
▁chó	-6869
▁flat	-6870
▁Dịch	-6871
▁trọn	-6872
eel	-6873
wide	-6874
▁code	-6875
▁Jewish	-6876
▁Get	-6877
▁Indonesia	-6878
iano	-6879
▁sets	-6880
▁adj	-6881
▁Ukraine	-6882
▁storm	-6883
▁gay	-6884
▁Pac	-6885
▁smaller	-6886
▁luck	-6887
▁suit	-6888
▁Sol	-6889
▁patients	-6890
▁thus	-6891
▁Young	-6892
▁Thơ	-6893
▁chẽ	-6894
▁negoti	-6895
▁claimed	-6896
▁newspaper	-6897
▁agreement	-6898
▁lãng	-6899
▁arrested	-6900
ẫy	-6901
wor	-6902
▁Division	-6903
abin	-6904
▁sources	-6905
▁Jeff	-6906
cm	-6907
▁plenty	-6908
▁wa	-6909
rie	-6910
▁ga	-6911
▁thoroughly	-6912
▁introduction	-6913
▁vinh	-6914
▁critical	-6915
▁transport	-6916
▁descriptions	-6917
▁films	-6918
▁Hậu	-6919
▁Click	-6920
▁closer	-6921
▁Thảo	-6922
▁ko	-6923
▁tật	-6924
▁belong	-6925
▁ther	-6926
▁AF	-6927
chan	-6928
ingly	-6929
▁BBC	-6930
otic	-6931
▁crimin	-6932
▁lầm	-6933
▁struggle	-6934
▁individuals	-6935
▁unit	-6936
▁bê	-6937
▁Democrats	-6938
▁hur	-6939
▁flu	-6940
LĐ	-6941
▁illustrations	-6942
▁fat	-6943
▁aim	-6944
▁Kindle	-6945
▁Ford	-6946
▁image	-6947
▁Khách	-6948
▁Tính	-6949
▁Musl	-6950
▁commercial	-6951
▁Nữ	-6952
▁theme	-6953
▁aid	-6954
▁Series	-6955
▁crazy	-6956
▁complic	-6957
▁huynh	-6958
▁Committee	-6959
▁Cle	-6960
▁đựng	-6961
▁đền	-6962
▁đạn	-6963
ali	-6964
▁quot	-6965
▁focused	-6966
▁influence	-6967
▁Daily	-6968
eds	-6969
▁forget	-6970
utch	-6971
▁Bus	-6972
soft	-6973
▁format	-6974
▁rap	-6975
▁mỡ	-6976
asseng	-6977
ounded	-6978
▁Id	-6979
▁Tĩnh	-6980
▁Academ	-6981
▁Ju	-6982
▁aircraft	-6983
▁removed	-6984
exp	-6985
roid	-6986
▁spl	-6987
▁rough	-6988
▁lặng	-6989
▁residents	-6990
OU	-6991
▁Lam	-6992
▁dollars	-6993
▁imagine	-6994
ulated	-6995
▁responsible	-6996
▁cát	-6997
▁Palest	-6998
▁enter	-6999
▁intended	-7000
▁Đề	-7001
▁Fil	-7002
uts	-7003
▁memory	-7004
▁Hôm	-7005
hab	-7006
▁romantic	-7007
▁answers	-7008
▁owner	-7009
▁behavior	-7010
▁dism	-7011
▁collect	-7012
ipl	-7013
▁Child	-7014
▁giáp	-7015
standing	-7016
▁bes	-7017
▁achieve	-7018
▁images	-7019
▁mi	-7020
ishop	-7021
▁bụi	-7022
▁AR	-7023
agn	-7024
▁mãn	-7025
aling	-7026
▁episode	-7027
elly	-7028
▁hearing	-7029
▁cash	-7030
ushed	-7031
▁gar	-7032
▁directed	-7033
▁lí	-7034
▁khuyên	-7035
oir	-7036
otten	-7037
▁hi	-7038
▁rủi	-7039
▁Đỗ	-7040
▁confir	-7041
▁Const	-7042
ushing	-7043
▁Địa	-7044
▁location	-7045
▁river	-7046
▁béo	-7047
▁performed	-7048
▁nu	-7049
fl	-7050
▁Hợp	-7051
▁shared	-7052
aig	-7053
hy	-7054
▁magazine	-7055
▁candidate	-7056
▁ruột	-7057
▁falling	-7058
▁móc	-7059
▁Hollywood	-7060
▁replaced	-7061
▁circum	-7062
ET	-7063
▁graph	-7064
▁active	-7065
▁launch	-7066
zy	-7067
▁fuel	-7068
▁craft	-7069
encies	-7070
▁owners	-7071
▁Giấy	-7072
▁status	-7073
▁basis	-7074
unicip	-7075
istics	-7076
▁fellow	-7077
▁northern	-7078
▁types	-7079
▁accused	-7080
ensus	-7081
▁Still	-7082
▁Home	-7083
▁váy	-7084
▁xóa	-7085
▁Ken	-7086
▁ancient	-7087
ested	-7088
▁medic	-7089
▁Land	-7090
▁ngưỡng	-7091
NN	-7092
ora	-7093
▁suffered	-7094
▁professor	-7095
astern	-7096
▁hes	-7097
▁appearance	-7098
▁MP	-7099
▁subsequ	-7100
▁Bre	-7101
▁possibly	-7102
▁Đinh	-7103
▁escape	-7104
▁CĐ	-7105
▁typical	-7106
▁lãm	-7107
▁cương	-7108
force	-7109
▁giấc	-7110
▁Thọ	-7111
▁id	-7112
pool	-7113
ala	-7114
▁suggested	-7115
odies	-7116
▁replace	-7117
▁đạp	-7118
▁obvious	-7119
▁buildings	-7120
▁Society	-7121
▁Ram	-7122
▁giây	-7123
▁cards	-7124
illy	-7125
▁rac	-7126
orney	-7127
▁portray	-7128
▁ham	-7129
riate	-7130
▁childhood	-7131
▁wel	-7132
▁boring	-7133
axy	-7134
KS	-7135
▁math	-7136
▁ice	-7137
▁TO	-7138
▁Dou	-7139
▁emp	-7140
▁nhánh	-7141
▁nav	-7142
▁Sov	-7143
ban	-7144
och	-7145
▁ngừa	-7146
▁Let	-7147
▁commission	-7148
▁Sus	-7149
▁duyên	-7150
jected	-7151
▁scientific	-7152
▁Far	-7153
▁bám	-7154
▁chốt	-7155
▁cultural	-7156
▁truyện	-7157
▁determined	-7158
▁compos	-7159
▁seeking	-7160
ợn	-7161
azz	-7162
▁effects	-7163
▁Câu	-7164
▁ment	-7165
▁advanced	-7166
▁mir	-7167
ref	-7168
ko	-7169
▁join	-7170
▁Căn	-7171
AD	-7172
▁khớp	-7173
▁traff	-7174
EAN	-7175
▁Mike	-7176
▁taught	-7177
▁eur	-7178
▁Microsoft	-7179
▁ie	-7180
▁rãi	-7181
▁See	-7182
lyn	-7183
▁cốt	-7184
icks	-7185
kins	-7186
▁leadership	-7187
ament	-7188
▁dường	-7189
▁defense	-7190
usion	-7191
▁mảnh	-7192
▁devot	-7193
▁Chung	-7194
▁Scotland	-7195
▁Form	-7196
▁household	-7197
▁Barack	-7198
▁watched	-7199
▁sequel	-7200
▁Though	-7201
▁prepared	-7202
▁nút	-7203
▁launched	-7204
▁listen	-7205
▁IP	-7206
▁resist	-7207
▁dad	-7208
ossible	-7209
▁Music	-7210
▁ngầm	-7211
aters	-7212
▁Only	-7213
resp	-7214
▁drop	-7215
▁Media	-7216
▁seriously	-7217
▁lừa	-7218
▁stress	-7219
▁dim	-7220
roat	-7221
▁coff	-7222
BI	-7223
▁UN	-7224
ules	-7225
▁Tòa	-7226
▁chừng	-7227
▁loving	-7228
ni	-7229
▁joy	-7230
▁tảng	-7231
▁insurance	-7232
▁council	-7233
▁TR	-7234
▁Williams	-7235
oking	-7236
▁tàn	-7237
▁controll	-7238
▁dangerous	-7239
▁hiến	-7240
▁Award	-7241
uable	-7242
▁informative	-7243
▁Eliz	-7244
▁changing	-7245
▁partner	-7246
ellow	-7247
▁compelling	-7248
▁Sn	-7249
▁Canadian	-7250
▁dâu	-7251
▁lies	-7252
▁explained	-7253
▁Bước	-7254
▁Research	-7255
▁entered	-7256
▁transform	-7257
ront	-7258
▁jack	-7259
▁Rod	-7260
▁explains	-7261
ía	-7262
▁KH	-7263
▁drugs	-7264
▁Bán	-7265
▁charged	-7266
▁Bost	-7267
▁miếng	-7268
▁immigr	-7269
hr	-7270
▁driving	-7271
▁suddenly	-7272
▁negative	-7273
▁Soviet	-7274
▁giật	-7275
the	-7276
▁giam	-7277
▁Chiều	-7278
icide	-7279
▁pitch	-7280
▁Brook	-7281
▁Fre	-7282
▁repeated	-7283
com	-7284
▁featured	-7285
▁concerned	-7286
▁speaking	-7287
rd	-7288
▁rates	-7289
▁religion	-7290
▁surface	-7291
AG	-7292
▁Lab	-7293
ibl	-7294
▁passeng	-7295
▁bơi	-7296
▁item	-7297
▁profit	-7298
▁root	-7299
▁interp	-7300
▁rain	-7301
▁Hoàn	-7302
▁Mi	-7303
bur	-7304
▁Đất	-7305
▁tips	-7306
▁ngoái	-7307
▁thanks	-7308
erves	-7309
▁selling	-7310
▁PR	-7311
▁brothers	-7312
▁Irish	-7313
AP	-7314
▁dy	-7315
▁views	-7316
▁Ap	-7317
▁Ari	-7318
▁dress	-7319
▁xuân	-7320
▁Secretary	-7321
▁letters	-7322
▁Kiểm	-7323
▁Dire	-7324
▁chim	-7325
▁Bo	-7326
▁Tấn	-7327
▁phỏng	-7328
▁bến	-7329
▁youth	-7330
▁thả	-7331
▁damage	-7332
▁allows	-7333
▁xế	-7334
writ	-7335
▁chối	-7336
▁choose	-7337
▁department	-7338
cend	-7339
▁IT	-7340
▁literature	-7341
▁AC	-7342
▁meets	-7343
▁marketing	-7344
▁voc	-7345
aptop	-7346
▁Mem	-7347
▁Bern	-7348
Th	-7349
▁Video	-7350
▁sac	-7351
▁Ú	-7352
cean	-7353
▁waste	-7354
▁Xem	-7355
▁tow	-7356
▁discussion	-7357
▁bơm	-7358
▁situations	-7359
▁mobile	-7360
▁NOT	-7361
▁Hong	-7362
▁likes	-7363
▁magn	-7364
▁Quỳnh	-7365
▁Ngài	-7366
▁humans	-7367
▁measure	-7368
▁opposition	-7369
▁clip	-7370
▁xứng	-7371
▁Hành	-7372
▁friendship	-7373
▁relate	-7374
▁coup	-7375
▁prosec	-7376
▁restr	-7377
utin	-7378
essed	-7379
▁max	-7380
▁hundreds	-7381
▁instructions	-7382
▁strange	-7383
▁moves	-7384
eller	-7385
▁aspects	-7386
▁register	-7387
▁cỏ	-7388
▁Huỳnh	-7389
▁Time	-7390
▁inspir	-7391
▁ST	-7392
▁serving	-7393
▁believable	-7394
▁incor	-7395
▁crack	-7396
▁ben	-7397
▁realistic	-7398
vin	-7399
▁score	-7400
▁debt	-7401
▁Nước	-7402
▁holds	-7403
▁admit	-7404
▁operation	-7405
▁paced	-7406
▁otherwise	-7407
entially	-7408
▁exhib	-7409
▁hotel	-7410
▁Boston	-7411
▁Toy	-7412
▁dâm	-7413
▁describes	-7414
▁effective	-7415
▁dialogue	-7416
▁dạ	-7417
▁leads	-7418
▁Da	-7419
imum	-7420
ui	-7421
▁sánh	-7422
eting	-7423
▁ác	-7424
▁territ	-7425
▁architect	-7426
nel	-7427
▁virt	-7428
▁benefit	-7429
▁ưa	-7430
▁Men	-7431
▁underst	-7432
ướt	-7433
▁hun	-7434
ext	-7435
▁dedic	-7436
▁thùng	-7437
▁Steve	-7438
▁weapons	-7439
▁Instead	-7440
▁Ok	-7441
▁III	-7442
▁ngụ	-7443
▁hầm	-7444
▁platform	-7445
▁Andrew	-7446
▁dry	-7447
▁Nai	-7448
bel	-7449
▁Town	-7450
▁Mạnh	-7451
▁Game	-7452
▁NE	-7453
lv	-7454
▁faced	-7455
▁Jenn	-7456
icious	-7457
▁presence	-7458
▁muối	-7459
▁Windows	-7460
know	-7461
reme	-7462
ancing	-7463
▁Chris	-7464
▁tears	-7465
▁script	-7466
▁dp	-7467
▁creative	-7468
▁thăng	-7469
rovers	-7470
hire	-7471
▁boo	-7472
arters	-7473
▁climate	-7474
▁tôm	-7475
▁categ	-7476
▁chín	-7477
▁fly	-7478
▁customers	-7479
▁manner	-7480
năm	-7481
▁ox	-7482
▁tries	-7483
▁cities	-7484
▁bright	-7485
▁đâm	-7486
▁rating	-7487
▁Mir	-7488
aze	-7489
cious	-7490
da	-7491
▁Federal	-7492
▁rv	-7493
▁sale	-7494
▁Prime	-7495
▁express	-7496
ronic	-7497
▁debate	-7498
BA	-7499
▁window	-7500
▁decide	-7501
▁Trà	-7502
▁Asia	-7503
▁rang	-7504
▁Zeal	-7505
estic	-7506
▁cyc	-7507
▁Xã	-7508
▁Thụy	-7509
▁GM	-7510
▁flaw	-7511
ompl	-7512
▁inspired	-7513
▁Dec	-7514
▁Đặng	-7515
▁decisions	-7516
▁Lake	-7517
▁Little	-7518
▁trống	-7519
▁diss	-7520
▁sites	-7521
▁larg	-7522
▁artists	-7523
▁href	-7524
▁Ah	-7525
di	-7526
▁easier	-7527
▁Lew	-7528
▁approx	-7529
▁generation	-7530
▁stret	-7531
▁corner	-7532
▁parties	-7533
iber	-7534
▁flow	-7535
▁vitamin	-7536
urban	-7537
uled	-7538
othes	-7539
▁items	-7540
▁abuse	-7541
ễu	-7542
▁elections	-7543
▁pair	-7544
▁Joseph	-7545
▁impossible	-7546
▁Jac	-7547
▁concerns	-7548
▁calling	-7549
▁bắc	-7550
▁captured	-7551
▁Tùng	-7552
▁Found	-7553
▁Mah	-7554
yr	-7555
▁resources	-7556
▁university	-7557
▁compreh	-7558
▁txt	-7559
▁hopes	-7560
orrow	-7561
▁motiv	-7562
▁Dung	-7563
athan	-7564
▁records	-7565
▁delivered	-7566
▁animal	-7567
▁UTF	-7568
ta	-7569
▁paint	-7570
▁bớt	-7571
▁ASEAN	-7572
▁winner	-7573
▁pra	-7574
raid	-7575
ception	-7576
▁temper	-7577
▁produce	-7578
▁arp	-7579
▁Academy	-7580
▁attended	-7581
▁Diễn	-7582
▁Bas	-7583
▁bottom	-7584
▁file	-7585
▁Mọi	-7586
▁raise	-7587
▁rvw	-7588
▁Sử	-7589
▁shock	-7590
▁Ý	-7591
vis	-7592
▁remaining	-7593
tered	-7594
▁Argent	-7595
▁arrang	-7596
▁Fred	-7597
▁intelligence	-7598
▁Leg	-7599
▁greatest	-7600
▁largely	-7601
▁NS	-7602
stein	-7603
▁developing	-7604
▁photo	-7605
▁ing	-7606
▁unus	-7607
kh	-7608
▁ring	-7609
war	-7610
▁dealing	-7611
▁Office	-7612
▁alleged	-7613
olved	-7614
▁Zealand	-7615
▁entirely	-7616
▁tone	-7617
▁syn	-7618
▁studio	-7619
▁electric	-7620
▁chua	-7621
▁feed	-7622
AL	-7623
▁Queen	-7624
▁nb	-7625
▁dàn	-7626
▁Muse	-7627
▁heroine	-7628
▁mixed	-7629
▁fifth	-7630
▁movies	-7631
yo	-7632
ẹo	-7633
senal	-7634
▁nom	-7635
▁react	-7636
▁attend	-7637
anna	-7638
▁activity	-7639
▁Fort	-7640
▁Stan	-7641
▁gain	-7642
▁advant	-7643
▁estate	-7644
▁Chief	-7645
▁Đăng	-7646
▁switch	-7647
▁balance	-7648
▁acknow	-7649
itors	-7650
▁division	-7651
▁happening	-7652
▁Chánh	-7653
▁Nick	-7654
▁deeply	-7655
aren	-7656
▁organized	-7657
mond	-7658
▁challenges	-7659
▁triệt	-7660
▁virus	-7661
▁unable	-7662
▁surprising	-7663
▁cẩn	-7664
▁đồn	-7665
▁memor	-7666
▁thinks	-7667
▁sounds	-7668
▁Danh	-7669
FA	-7670
▁Phụ	-7671
▁Cuối	-7672
▁houses	-7673
ican	-7674
▁cất	-7675
TVT	-7676
amm	-7677
▁fab	-7678
▁Kong	-7679
▁va	-7680
▁victims	-7681
▁unp	-7682
▁desire	-7683
like	-7684
▁initially	-7685
▁Enter	-7686
entr	-7687
▁đuôi	-7688
▁recall	-7689
▁unless	-7690
▁nbsp	-7691
▁lean	-7692
▁Three	-7693
▁controvers	-7694
▁nhượng	-7695
ties	-7696
rick	-7697
▁dọc	-7698
abb	-7699
▁Nhận	-7700
▁horse	-7701
▁hỏa	-7702
▁justice	-7703
IM	-7704
aven	-7705
▁Carolina	-7706
ãnh	-7707
▁commit	-7708
aser	-7709
▁lò	-7710
vely	-7711
▁emph	-7712
col	-7713
▁partners	-7714
▁Đã	-7715
▁circumst	-7716
▁Harr	-7717
▁Sher	-7718
▁Doanh	-7719
▁beach	-7720
▁shape	-7721
▁săn	-7722
▁studied	-7723
isa	-7724
▁dính	-7725
▁contributed	-7726
▁Elizabeth	-7727
▁housing	-7728
▁apparently	-7729
▁Prince	-7730
▁mainly	-7731
essor	-7732
▁....	-7733
▁tách	-7734
▁organiz	-7735
▁expecting	-7736
▁chairman	-7737
▁hiển	-7738
▁techniques	-7739
▁laughed	-7740
▁honor	-7741
▁Note	-7742
▁unexp	-7743
▁tàng	-7744
▁Cty	-7745
▁chec	-7746
▁hô	-7747
▁accompl	-7748
▁deter	-7749
▁trộn	-7750
▁Southern	-7751
▁topics	-7752
▁MC	-7753
▁tiệc	-7754
tained	-7755
▁Matt	-7756
▁businesses	-7757
▁bon	-7758
▁Wales	-7759
ùy	-7760
ato	-7761
▁Having	-7762
esterday	-7763
ẹt	-7764
▁DV	-7765
▁beautifully	-7766
▁Bạch	-7767
▁plane	-7768
owl	-7769
▁whis	-7770
▁lessons	-7771
oured	-7772
▁interests	-7773
▁neck	-7774
▁giãn	-7775
ilogy	-7776
▁Lau	-7777
lan	-7778
▁Ver	-7779
▁matt	-7780
ampion	-7781
▁issued	-7782
▁confirmed	-7783
▁rat	-7784
ila	-7785
▁loan	-7786
▁WW	-7787
▁thâm	-7788
▁bringing	-7789
▁Middle	-7790
▁Pacific	-7791
▁ái	-7792
▁chuỗi	-7793
itchen	-7794
▁nearby	-7795
iser	-7796
▁Through	-7797
▁ảo	-7798
▁Greek	-7799
▁myth	-7800
ốm	-7801
OW	-7802
▁tết	-7803
▁technical	-7804
▁Writ	-7805
▁đĩa	-7806
▁mental	-7807
▁equip	-7808
▁unexpected	-7809
▁Terms	-7810
▁employees	-7811
oma	-7812
▁tournament	-7813
▁asking	-7814
▁abandon	-7815
inent	-7816
▁relevant	-7817
▁thói	-7818
▁hôi	-7819
▁AM	-7820
▁Stephen	-7821
oven	-7822
ached	-7823
▁element	-7824
▁đà	-7825
▁grown	-7826
aust	-7827
▁Yet	-7828
▁táo	-7829
▁Blue	-7830
▁Four	-7831
▁tí	-7832
▁grade	-7833
▁Girl	-7834
▁approp	-7835
▁cart	-7836
▁sút	-7837
▁Follow	-7838
bo	-7839
▁tools	-7840
▁Georgia	-7841
▁lic	-7842
▁proposed	-7843
▁incident	-7844
▁dow	-7845
▁gam	-7846
▁Ronald	-7847
▁Chiếc	-7848
▁distance	-7849
ắk	-7850
▁sav	-7851
▁Hung	-7852
▁nhũng	-7853
ốp	-7854
▁bông	-7855
▁que	-7856
▁Son	-7857
▁Those	-7858
▁Plus	-7859
▁twenty	-7860
▁pregn	-7861
▁SH	-7862
▁Liver	-7863
ớn	-7864
▁motor	-7865
▁protest	-7866
▁awarded	-7867
▁Prov	-7868
▁mel	-7869
▁lie	-7870
▁rào	-7871
▁Force	-7872
▁Điểm	-7873
▁sand	-7874
gypt	-7875
▁regarding	-7876
▁connected	-7877
ket	-7878
atically	-7879
▁forth	-7880
▁context	-7881
▁sick	-7882
▁viễn	-7883
▁cỡ	-7884
▁annoy	-7885
▁pháo	-7886
▁sentence	-7887
▁Review	-7888
ador	-7889
▁rà	-7890
▁Columb	-7891
alty	-7892
▁batter	-7893
▁retired	-7894
umn	-7895
▁mỏng	-7896
▁integr	-7897
▁Way	-7898
▁worry	-7899
▁Did	-7900
▁Madrid	-7901
▁fairly	-7902
▁lệch	-7903
▁tree	-7904
▁believes	-7905
▁Liber	-7906
▁walking	-7907
▁nha	-7908
▁hằng	-7909
▁Before	-7910
▁võ	-7911
▁Thống	-7912
▁trôi	-7913
▁hat	-7914
▁Truyền	-7915
▁evening	-7916
▁Bal	-7917
▁software	-7918
▁intriguing	-7919
▁chest	-7920
▁niêm	-7921
▁taste	-7922
▁bì	-7923
▁Fire	-7924
▁Ray	-7925
▁Rem	-7926
ribe	-7927
▁ultimately	-7928
▁Mrs	-7929
▁powers	-7930
sey	-7931
▁hooked	-7932
▁wing	-7933
▁nở	-7934
apped	-7935
adium	-7936
▁investors	-7937
▁Class	-7938
▁Kr	-7939
▁đắt	-7940
▁Loved	-7941
▁voters	-7942
▁Sup	-7943
▁Galaxy	-7944
▁earned	-7945
▁supported	-7946
▁rub	-7947
▁ille	-7948
▁Navy	-7949
▁sees	-7950
▁mày	-7951
▁HS	-7952
▁Thi	-7953
▁labor	-7954
oster	-7955
▁conclusion	-7956
▁beauty	-7957
▁Mình	-7958
▁seek	-7959
ga	-7960
▁VI	-7961
▁toy	-7962
▁Att	-7963
east	-7964
▁Swed	-7965
▁strategy	-7966
▁allowing	-7967
aints	-7968
▁prosp	-7969
▁instit	-7970
itan	-7971
▁Women	-7972
aza	-7973
▁tom	-7974
▁forms	-7975
▁associated	-7976
▁GTVT	-7977
▁Hằng	-7978
▁khoáng	-7979
▁Justice	-7980
▁Egypt	-7981
▁vang	-7982
▁xả	-7983
▁Jour	-7984
▁digital	-7985
▁Tai	-7986
▁index	-7987
▁considering	-7988
▁Show	-7989
achel	-7990
▁mechan	-7991
sembly	-7992
▁survive	-7993
▁màng	-7994
▁consult	-7995
▁trưa	-7996
▁route	-7997
▁units	-7998
▁cãi	-7999
▁vương	-8000
▁Tham	-8001
▁scale	-8002
▁centre	-8003
▁shif	-8004
▁Cur	-8005
▁cere	-8006
▁flash	-8007
▁fram	-8008
▁afraid	-8009
look	-8010
▁Premier	-8011
▁spect	-8012
▁brilliant	-8013
▁Dev	-8014
▁intense	-8015
▁ghép	-8016
▁sharing	-8017
▁initial	-8018
nge	-8019
▁Northern	-8020
▁forever	-8021
▁Maybe	-8022
▁aftern	-8023
▁resource	-8024
▁weather	-8025
▁healthy	-8026
▁Francisco	-8027
▁Po	-8028
▁Lợi	-8029
▁desper	-8030
▁Somet	-8031
▁bia	-8032
▁brows	-8033
eline	-8034
▁thick	-8035
▁equipment	-8036
▁Rose	-8037
▁Museum	-8038
gu	-8039
ilty	-8040
tt	-8041
▁AD	-8042
▁Vị	-8043
▁coffee	-8044
icit	-8045
▁citizens	-8046
▁headed	-8047
▁nhịp	-8048
▁Unf	-8049
▁suppl	-8050
▁eating	-8051
▁championship	-8052
▁confidence	-8053
▁Would	-8054
▁Liverpool	-8055
kes	-8056
▁memories	-8057
▁pushed	-8058
▁đam	-8059
▁emphas	-8060
lig	-8061
▁schem	-8062
▁bodies	-8063
▁kg	-8064
▁Civil	-8065
▁ax	-8066
▁Arsenal	-8067
▁mad	-8068
▁implement	-8069
▁lawyer	-8070
▁musical	-8071
▁strike	-8072
gi	-8073
▁laptop	-8074
rich	-8075
▁constit	-8076
▁Tự	-8077
▁teachers	-8078
▁Squ	-8079
▁protagon	-8080
ỡi	-8081
▁Offic	-8082
▁Test	-8083
▁Rail	-8084
▁Foot	-8085
▁Rất	-8086
▁PH	-8087
▁chủng	-8088
▁Xin	-8089
▁anx	-8090
▁decade	-8091
▁compar	-8092
▁rank	-8093
▁Hoài	-8094
ulate	-8095
▁xoay	-8096
▁giấu	-8097
▁earn	-8098
▁Sky	-8099
▁Thăng	-8100
▁contemporary	-8101
▁requires	-8102
▁chose	-8103
▁prote	-8104
avel	-8105
▁Prot	-8106
▁obviously	-8107
iece	-8108
▁county	-8109
▁guitar	-8110
▁anyway	-8111
▁dance	-8112
▁Nhìn	-8113
ST	-8114
▁laid	-8115
GB	-8116
▁square	-8117
▁finance	-8118
▁mini	-8119
shire	-8120
▁snow	-8121
▁Manchester	-8122
▁Fam	-8123
▁core	-8124
▁Thay	-8125
▁ages	-8126
▁singer	-8127
▁Thể	-8128
▁benefits	-8129
▁Os	-8130
▁mortg	-8131
fe	-8132
win	-8133
▁Valley	-8134
▁Thổ	-8135
▁horror	-8136
▁conclud	-8137
▁symb	-8138
▁depart	-8139
▁freedom	-8140
atre	-8141
▁suffering	-8142
▁Bab	-8143
▁perfectly	-8144
oses	-8145
▁xưởng	-8146
▁references	-8147
aks	-8148
▁Huyền	-8149
▁Mosc	-8150
▁withd	-8151
▁vs	-8152
▁đeo	-8153
▁faces	-8154
▁Open	-8155
▁Spain	-8156
▁điệp	-8157
▁fingers	-8158
▁bọc	-8159
acity	-8160
▁click	-8161
▁gang	-8162
▁estimated	-8163
▁adapt	-8164
▁Jane	-8165
▁spring	-8166
▁conversation	-8167
▁favour	-8168
▁Guard	-8169
▁puzz	-8170
▁relatively	-8171
▁represented	-8172
▁fish	-8173
ulf	-8174
▁hỗn	-8175
ươn	-8176
▁encounter	-8177
cing	-8178
▁LOV	-8179
▁hẹp	-8180
uous	-8181
▁neither	-8182
▁trading	-8183
▁Mã	-8184
▁Lang	-8185
▁tiêm	-8186
▁Emp	-8187
coh	-8188
▁coal	-8189
▁Tuyên	-8190
▁Tăng	-8191
▁harm	-8192
▁murd	-8193
▁survey	-8194
▁Lực	-8195
▁afternoon	-8196
▁deeper	-8197
▁bát	-8198
▁flood	-8199
bn	-8200
▁Đạo	-8201
▁sót	-8202
▁offering	-8203
▁Naz	-8204
▁union	-8205
▁nob	-8206
inal	-8207
▁expressed	-8208
▁treated	-8209
▁Huyện	-8210
▁bá	-8211
▁vội	-8212
▁map	-8213
▁concentr	-8214
ava	-8215
▁nodd	-8216
▁Mid	-8217
▁Riêng	-8218
▁advance	-8219
▁facing	-8220
▁Techn	-8221
▁thọ	-8222
▁approximately	-8223
oop	-8224
▁accomp	-8225
▁thánh	-8226
▁BV	-8227
▁Bol	-8228
▁shoulder	-8229
▁branch	-8230
▁wond	-8231
▁interpret	-8232
▁literary	-8233
▁hối	-8234
▁adding	-8235
▁Moscow	-8236
▁Thư	-8237
▁distr	-8238
gun	-8239
IG	-8240
▁struggles	-8241
▁wondering	-8242
▁expectations	-8243
apes	-8244
▁Fox	-8245
▁giận	-8246
▁extended	-8247
ux	-8248
▁lit	-8249
ersey	-8250
▁Sư	-8251
▁prime	-8252
▁refused	-8253
▁criminal	-8254
▁neighborhood	-8255
▁Tod	-8256
▁AND	-8257
▁End	-8258
agan	-8259
▁colon	-8260
▁thriller	-8261
▁municip	-8262
ingu	-8263
▁struck	-8264
▁Hun	-8265
▁Cat	-8266
▁Sarah	-8267
ologist	-8268
▁ngộ	-8269
▁circumstances	-8270
▁deals	-8271
▁incredible	-8272
▁Taylor	-8273
▁Tok	-8274
▁vehicle	-8275
▁Hon	-8276
▁je	-8277
▁wis	-8278
▁Kennedy	-8279
▁literally	-8280
▁sections	-8281
▁chuyền	-8282
▁seconds	-8283
▁yesterday	-8284
real	-8285
▁democr	-8286
▁Wild	-8287
▁steam	-8288
andal	-8289
▁Thanks	-8290
rapped	-8291
▁USA	-8292
ennis	-8293
▁posted	-8294
▁handle	-8295
▁indeed	-8296
▁signs	-8297
▁mm	-8298
▁bốc	-8299
▁personally	-8300
rep	-8301
▁notice	-8302
▁Ta	-8303
▁users	-8304
▁driver	-8305
▁recon	-8306
▁committee	-8307
▁concepts	-8308
▁secrets	-8309
▁ast	-8310
adow	-8311
▁tun	-8312
▁diet	-8313
imp	-8314
iban	-8315
▁Asian	-8316
▁accepted	-8317
▁retire	-8318
▁About	-8319
▁pure	-8320
▁pleasure	-8321
▁Donald	-8322
ario	-8323
▁empt	-8324
aga	-8325
ifer	-8326
▁operating	-8327
▁describe	-8328
▁sight	-8329
▁lính	-8330
▁chosen	-8331
▁native	-8332
CC	-8333
▁crash	-8334
▁consequ	-8335
OL	-8336
uation	-8337
▁attempts	-8338
▁understood	-8339
▁wearing	-8340
▁Board	-8341
ells	-8342
▁Year	-8343
▁smartphone	-8344
▁accounts	-8345
onents	-8346
▁birthday	-8347
▁joint	-8348
▁importance	-8349
▁Jun	-8350
anny	-8351
▁occurred	-8352
▁Unfortunately	-8353
▁domestic	-8354
ượn	-8355
▁lips	-8356
tle	-8357
▁Public	-8358
isted	-8359
enth	-8360
▁rising	-8361
▁winter	-8362
▁guilty	-8363
▁heat	-8364
▁Brad	-8365
▁Oper	-8366
▁Dưới	-8367
agen	-8368
▁concert	-8369
▁struggling	-8370
▁affect	-8371
▁failure	-8372
▁hidden	-8373
▁acting	-8374
oration	-8375
▁Dam	-8376
▁Security	-8377
▁thắc	-8378
▁Bất	-8379
▁micro	-8380
▁wedd	-8381
bury	-8382
ucted	-8383
oom	-8384
▁Kiên	-8385
ẫm	-8386
▁vision	-8387
▁khoe	-8388
▁Lind	-8389
▁publisher	-8390
▁prohib	-8391
arant	-8392
▁Olympics	-8393
▁Exp	-8394
▁AN	-8395
▁agent	-8396
▁ngọn	-8397
▁BĐ	-8398
▁Som	-8399
▁thin	-8400
▁CEO	-8401
▁Aut	-8402
▁Power	-8403
▁standards	-8404
▁yards	-8405
▁surrounding	-8406
▁thấm	-8407
▁samp	-8408
▁tiny	-8409
known	-8410
▁tha	-8411
▁Bồ	-8412
▁Bến	-8413
▁troub	-8414
▁ce	-8415
▁advantage	-8416
▁Thậm	-8417
obi	-8418
▁Robin	-8419
▁vắng	-8420
ansas	-8421
▁killer	-8422
▁combat	-8423
▁packed	-8424
▁barely	-8425
▁Shar	-8426
▁initi	-8427
▁Ohio	-8428
▁stands	-8429
▁label	-8430
aver	-8431
▁Thần	-8432
▁classes	-8433
▁Spec	-8434
▁Ryan	-8435
▁Kingdom	-8436
▁Động	-8437
▁stone	-8438
DA	-8439
▁personality	-8440
▁protection	-8441
ih	-8442
▁holiday	-8443
esse	-8444
▁tuân	-8445
▁actor	-8446
▁kitchen	-8447
ops	-8448
▁mịn	-8449
▁TN	-8450
▁falls	-8451
▁Sk	-8452
▁termin	-8453
▁sợi	-8454
▁Cross	-8455
teen	-8456
▁Coll	-8457
▁eastern	-8458
aya	-8459
isation	-8460
▁injury	-8461
▁explos	-8462
▁reviewed	-8463
▁therefore	-8464
▁Saint	-8465
▁Tú	-8466
▁engaged	-8467
▁Tiếng	-8468
▁khiếu	-8469
▁phun	-8470
▁Edward	-8471
▁Festival	-8472
cher	-8473
ji	-8474
▁Nhờ	-8475
▁thiệp	-8476
▁metal	-8477
▁loa	-8478
▁Rog	-8479
▁combined	-8480
ags	-8481
▁lợn	-8482
▁nướng	-8483
eld	-8484
▁lạm	-8485
▁vehicles	-8486
▁regional	-8487
▁Nhi	-8488
▁unusual	-8489
oi	-8490
▁thợ	-8491
▁nhạy	-8492
▁ngắm	-8493
▁muse	-8494
▁aside	-8495
▁Hope	-8496
▁Science	-8497
▁vẹn	-8498
rap	-8499
▁alternative	-8500
▁injured	-8501
▁Educ	-8502
▁somehow	-8503
▁Lewis	-8504
▁clin	-8505
▁Summer	-8506
▁WAS	-8507
▁promise	-8508
▁OF	-8509
▁Taliban	-8510
▁traffic	-8511
tô	-8512
▁nấm	-8513
▁clim	-8514
▁ngạc	-8515
▁Rel	-8516
▁Ele	-8517
ova	-8518
▁stream	-8519
▁anticip	-8520
▁destroyed	-8521
▁academic	-8522
▁creation	-8523
▁Trị	-8524
ba	-8525
point	-8526
▁fought	-8527
▁athlet	-8528
▁Die	-8529
▁trees	-8530
▁stayed	-8531
▁Úc	-8532
▁Night	-8533
ýt	-8534
▁errors	-8535
▁candidates	-8536
▁dipl	-8537
▁shoot	-8538
▁hoped	-8539
▁prompt	-8540
amed	-8541
▁cáp	-8542
▁stup	-8543
▁chuột	-8544
▁Tìm	-8545
▁selected	-8546
▁suicide	-8547
night	-8548
roll	-8549
▁Phượng	-8550
▁sharp	-8551
▁valuable	-8552
▁Marc	-8553
▁khát	-8554
▁Israeli	-8555
▁lady	-8556
inger	-8557
ati	-8558
▁Full	-8559
angers	-8560
▁plants	-8561
CA	-8562
▁Pot	-8563
▁innoc	-8564
▁thuần	-8565
▁streets	-8566
▁Michigan	-8567
▁identified	-8568
▁mountain	-8569
▁copies	-8570
sylv	-8571
ector	-8572
onym	-8573
▁chai	-8574
coming	-8575
▁prove	-8576
▁coverage	-8577
▁Chất	-8578
▁chìm	-8579
▁subsc	-8580
▁industrial	-8581
▁veter	-8582
▁Toyota	-8583
▁Android	-8584
▁Giới	-8585
▁History	-8586
▁choices	-8587
▁Dark	-8588
▁Card	-8589
▁Iv	-8590
▁victim	-8591
▁authority	-8592
▁ạ	-8593
▁bận	-8594
▁smooth	-8595
whel	-8596
▁yeah	-8597
▁Adam	-8598
▁tort	-8599
▁Barb	-8600
▁rắn	-8601
▁identity	-8602
▁sector	-8603
▁si	-8604
▁puts	-8605
▁Jean	-8606
ima	-8607
▁đỗ	-8608
▁khâu	-8609
outs	-8610
▁experts	-8611
▁shall	-8612
▁rescue	-8613
▁spin	-8614
▁spark	-8615
▁Thật	-8616
▁involve	-8617
aled	-8618
▁Capt	-8619
▁scheduled	-8620
▁expensive	-8621
▁committed	-8622
▁pleas	-8623
▁vĩ	-8624
▁shooting	-8625
bl	-8626
▁khuyết	-8627
▁patient	-8628
▁aspect	-8629
ira	-8630
▁dollar	-8631
ails	-8632
▁drew	-8633
sylvania	-8634
▁Moh	-8635
▁bear	-8636
▁heads	-8637
▁dán	-8638
osa	-8639
▁defeat	-8640
▁dreams	-8641
box	-8642
▁tall	-8643
▁driven	-8644
OP	-8645
fa	-8646
can	-8647
▁Call	-8648
▁instr	-8649
▁basket	-8650
▁vari	-8651
▁talent	-8652
▁Hond	-8653
▁Rome	-8654
▁dont	-8655
▁rival	-8656
▁Fall	-8657
▁machine	-8658
▁trội	-8659
▁Lar	-8660
QĐ	-8661
▁trilogy	-8662
▁alcoh	-8663
▁impressed	-8664
▁defeated	-8665
▁newspapers	-8666
▁Republicans	-8667
▁nomin	-8668
▁gotten	-8669
gl	-8670
▁option	-8671
edia	-8672
▁Never	-8673
▁corrupt	-8674
ordan	-8675
▁Latin	-8676
earing	-8677
▁Kiến	-8678
▁governor	-8679
▁warned	-8680
▁CBS	-8681
▁predictable	-8682
▁fal	-8683
▁mầm	-8684
▁lậu	-8685
▁Pen	-8686
▁Kent	-8687
▁UPI	-8688
▁Alexander	-8689
▁accurate	-8690
roc	-8691
▁CA	-8692
▁mét	-8693
▁squad	-8694
ye	-8695
iveness	-8696
▁Today	-8697
▁retail	-8698
▁complicated	-8699
▁Phải	-8700
▁tack	-8701
▁hà	-8702
▁Mess	-8703
▁Khoảng	-8704
▁sust	-8705
▁Pennsylvania	-8706
▁widely	-8707
▁reduce	-8708
▁Sav	-8709
▁admitted	-8710
▁massive	-8711
▁pleased	-8712
▁flying	-8713
▁models	-8714
iat	-8715
▁legs	-8716
▁fault	-8717
▁yard	-8718
▁planet	-8719
▁defend	-8720
idel	-8721
▁xách	-8722
▁scream	-8723
ruit	-8724
▁returning	-8725
▁remove	-8726
icon	-8727
▁rũ	-8728
▁Sea	-8729
▁bigger	-8730
▁parliament	-8731
▁SP	-8732
▁bath	-8733
▁Av	-8734
▁thuẫn	-8735
▁mốc	-8736
▁Trịnh	-8737
▁suspect	-8738
▁Na	-8739
▁matches	-8740
▁Champions	-8741
▁bridge	-8742
▁riv	-8743
▁inner	-8744
▁Following	-8745
▁việt	-8746
▁vampire	-8747
▁gall	-8748
▁Gab	-8749
▁Social	-8750
▁phen	-8751
▁museum	-8752
▁contrast	-8753
▁rapid	-8754
▁proceed	-8755
▁referred	-8756
roud	-8757
▁mổ	-8758
▁Steven	-8759
▁gained	-8760
▁rein	-8761
▁silver	-8762
▁phu	-8763
▁Broad	-8764
▁nodded	-8765
▁Color	-8766
▁Tony	-8767
▁advoc	-8768
▁Mục	-8769
▁courage	-8770
▁emergency	-8771
▁Down	-8772
▁PG	-8773
▁affected	-8774
LC	-8775
osph	-8776
▁methods	-8777
▁cống	-8778
▁task	-8779
▁visual	-8780
arn	-8781
▁apply	-8782
▁Vill	-8783
▁Independ	-8784
▁supporting	-8785
▁Supreme	-8786
▁Kiều	-8787
▁agg	-8788
▁Ví	-8789
▁angry	-8790
▁boyfriend	-8791
▁loy	-8792
▁Hiền	-8793
▁leo	-8794
▁cookbook	-8795
▁draft	-8796
▁captiv	-8797
▁IN	-8798
▁Aud	-8799
icing	-8800
▁stuck	-8801
stone	-8802
▁throw	-8803
uchia	-8804
▁taxi	-8805
▁Ox	-8806
▁Mau	-8807
▁passing	-8808
▁Trí	-8809
▁rent	-8810
iest	-8811
▁tied	-8812
cr	-8813
respond	-8814
ighter	-8815
▁inspiring	-8816
▁vast	-8817
▁tracks	-8818
▁province	-8819
▁responsibility	-8820
▁Sever	-8821
iences	-8822
ela	-8823
▁Cát	-8824
usive	-8825
▁download	-8826
▁Excellent	-8827
▁Tôn	-8828
▁simpl	-8829
▁criticism	-8830
▁spoil	-8831
▁primarily	-8832
ùn	-8833
▁pointed	-8834
▁gạch	-8835
ishes	-8836
▁Az	-8837
raham	-8838
▁handed	-8839
▁imagination	-8840
▁warning	-8841
rier	-8842
▁values	-8843
▁tiễn	-8844
▁stupid	-8845
▁terrible	-8846
▁Ori	-8847
put	-8848
▁tẩy	-8849
▁nic	-8850
orge	-8851
▁package	-8852
▁Hard	-8853
▁explanation	-8854
ricult	-8855
aughters	-8856
FL	-8857
▁supply	-8858
▁cabin	-8859
▁Thiếu	-8860
▁DVD	-8861
CT	-8862
▁gent	-8863
▁Sao	-8864
unte	-8865
▁carrying	-8866
▁bother	-8867
▁mỏ	-8868
▁limit	-8869
unning	-8870
UT	-8871
▁lovely	-8872
▁millions	-8873
▁Palestin	-8874
▁lad	-8875
▁Bul	-8876
▁vướng	-8877
▁delay	-8878
▁latter	-8879
acle	-8880
▁Eastern	-8881
▁comic	-8882
▁Prog	-8883
eron	-8884
IL	-8885
▁Tem	-8886
▁mọc	-8887
▁tuệ	-8888
▁thô	-8889
▁offensive	-8890
▁jail	-8891
▁overwhel	-8892
▁Hướng	-8893
▁hardly	-8894
▁Thạch	-8895
▁historic	-8896
▁boss	-8897
pha	-8898
▁Disc	-8899
▁friendly	-8900
▁articles	-8901
bing	-8902
▁champion	-8903
▁ships	-8904
▁Lãnh	-8905
▁Log	-8906
▁incorpor	-8907
▁relief	-8908
nic	-8909
▁collabor	-8910
uting	-8911
ption	-8912
▁wedding	-8913
▁cắm	-8914
▁ghost	-8915
▁thrown	-8916
boy	-8917
issions	-8918
▁worried	-8919
▁clothes	-8920
▁Hạnh	-8921
▁Eth	-8922
▁Argentina	-8923
▁announce	-8924
▁pool	-8925
▁lend	-8926
inding	-8927
▁noticed	-8928
▁info	-8929
▁Chuyên	-8930
▁smiled	-8931
works	-8932
▁enemy	-8933
▁philosophy	-8934
aska	-8935
▁enjoying	-8936
arring	-8937
▁laughing	-8938
enses	-8939
▁Mean	-8940
adel	-8941
▁captain	-8942
▁dịu	-8943
▁heavily	-8944
ordon	-8945
▁sought	-8946
▁Đô	-8947
▁scholars	-8948
▁vent	-8949
▁fi	-8950
▁sky	-8951
ictions	-8952
▁tie	-8953
▁cuts	-8954
▁apartment	-8955
▁đắc	-8956
▁Bh	-8957
▁Gall	-8958
▁mờ	-8959
▁tor	-8960
▁đói	-8961
▁existence	-8962
▁ju	-8963
rah	-8964
▁ốc	-8965
▁Trinh	-8966
▁Est	-8967
▁hits	-8968
▁doctors	-8969
▁tứ	-8970
▁opposite	-8971
▁walls	-8972
▁dogs	-8973
▁airport	-8974
▁quyến	-8975
▁approved	-8976
▁chăng	-8977
▁ấp	-8978
esting	-8979
▁nồng	-8980
▁frequently	-8981
▁dinner	-8982
▁NAT	-8983
makers	-8984
▁gối	-8985
▁Parliament	-8986
▁acknowled	-8987
umes	-8988
▁perman	-8989
▁appropriate	-8990
eo	-8991
▁Muslim	-8992
▁lồ	-8993
▁GP	-8994
awa	-8995
▁Eric	-8996
▁conduct	-8997
▁Thịnh	-8998
HING	-8999
▁secondary	-9000
▁existing	-9001
▁cheap	-9002
▁Sang	-9003
▁dedicated	-9004
▁Football	-9005
▁Associated	-9006
ellect	-9007
▁tests	-9008
▁Perhaps	-9009
▁afford	-9010
imal	-9011
▁attorney	-9012
▁Phim	-9013
aka	-9014
▁Jersey	-9015
▁entry	-9016
▁Mo	-9017
▁Nên	-9018
▁Campuchia	-9019
lượng	-9020
▁Business	-9021
▁Môi	-9022
▁Work	-9023
▁vide	-9024
▁cup	-9025
▁soạn	-9026
mpath	-9027
▁iron	-9028
▁mạn	-9029
▁hoan	-9030
▁Ư	-9031
▁anger	-9032
▁Feder	-9033
▁Bon	-9034
burgh	-9035
▁involving	-9036
fall	-9037
▁brown	-9038
▁Conserv	-9039
▁dismiss	-9040
▁boat	-9041
▁vul	-9042
▁baseball	-9043
▁ân	-9044
▁deaths	-9045
▁Later	-9046
▁Nhĩ	-9047
▁Lady	-9048
▁kí	-9049
▁typically	-9050
▁poetry	-9051
▁bể	-9052
▁Light	-9053
anth	-9054
▁Hiếu	-9055
▁nick	-9056
▁votes	-9057
▁tension	-9058
ằn	-9059
▁Thúy	-9060
▁Such	-9061
▁corporate	-9062
▁strongly	-9063
mann	-9064
▁Nghe	-9065
▁cắp	-9066
▁diplom	-9067
▁Korean	-9068
▁Iraqi	-9069
▁suggests	-9070
TM	-9071
▁Dun	-9072
▁communities	-9073
gment	-9074
▁solution	-9075
▁Victoria	-9076
▁busy	-9077
▁Water	-9078
▁unknown	-9079
▁saved	-9080
thur	-9081
▁Maria	-9082
▁insights	-9083
▁funding	-9084
itty	-9085
▁documents	-9086
▁kĩ	-9087
wan	-9088
▁bẩn	-9089
▁identify	-9090
▁vả	-9091
▁presents	-9092
▁Chưa	-9093
▁HĐND	-9094
▁giặt	-9095
▁sáu	-9096
▁Fair	-9097
▁mẻ	-9098
▁ngõ	-9099
ormal	-9100
▁Thạnh	-9101
▁paying	-9102
▁mr	-9103
ilton	-9104
▁khổng	-9105
▁Ven	-9106
▁Chẳng	-9107
▁elev	-9108
▁fired	-9109
▁legislation	-9110
▁GS	-9111
▁divor	-9112
alk	-9113
▁Uy	-9114
asp	-9115
lers	-9116
▁plastic	-9117
▁Ut	-9118
▁assault	-9119
▁browser	-9120
▁giant	-9121
▁Hosp	-9122
▁yết	-9123
▁Where	-9124
▁Quỹ	-9125
▁##	-9126
▁measures	-9127
oken	-9128
▁visited	-9129
▁Reading	-9130
▁Cửa	-9131
▁mây	-9132
▁vivid	-9133
▁surg	-9134
▁wisdom	-9135
▁Giờ	-9136
▁mạo	-9137
▁Gần	-9138
▁cụm	-9139
▁Nob	-9140
▁titles	-9141
▁installment	-9142
▁WH	-9143
oln	-9144
aki	-9145
▁tựa	-9146
▁Master	-9147
▁Coast	-9148
▁restaurant	-9149
ours	-9150
▁Triệu	-9151
▁vice	-9152
▁cậy	-9153
▁combination	-9154
▁refres	-9155
▁đắp	-9156
▁argument	-9157
▁reduced	-9158
▁rural	-9159
▁Ky	-9160
Ch	-9161
▁Beck	-9162
▁shook	-9163
▁Kate	-9164
▁Bell	-9165
▁stretch	-9166
▁alert	-9167
▁constantly	-9168
▁Inf	-9169
▁cước	-9170
▁spons	-9171
utor	-9172
▁attacked	-9173
▁positions	-9174
▁losses	-9175
▁nề	-9176
andom	-9177
▁intent	-9178
▁regret	-9179
▁Hillary	-9180
▁Jr	-9181
mes	-9182
▁Anth	-9183
▁recovery	-9184
▁contained	-9185
▁ensure	-9186
oric	-9187
▁observ	-9188
▁chuộng	-9189
▁capacity	-9190
▁tọa	-9191
▁subs	-9192
▁stepped	-9193
▁comedy	-9194
▁FA	-9195
▁moral	-9196
▁stim	-9197
TON	-9198
essions	-9199
aret	-9200
▁kidn	-9201
▁Nghiên	-9202
▁scientists	-9203
▁assistant	-9204
lets	-9205
▁constant	-9206
▁Ra	-9207
mitted	-9208
▁LĐ	-9209
▁Finally	-9210
▁muộn	-9211
▁Cha	-9212
▁Ánh	-9213
▁stores	-9214
▁Viên	-9215
▁finishing	-9216
▁Putin	-9217
▁normally	-9218
▁garden	-9219
asters	-9220
▁Pop	-9221
▁capture	-9222
▁Carl	-9223
▁trend	-9224
▁stations	-9225
▁nations	-9226
▁cúng	-9227
▁Berlin	-9228
▁Scottish	-9229
▁Arts	-9230
▁essential	-9231
▁policies	-9232
▁Tô	-9233
▁shift	-9234
▁statements	-9235
▁declined	-9236
mad	-9237
▁Hand	-9238
▁bút	-9239
▁dĩ	-9240
▁Among	-9241
▁didnt	-9242
▁reaction	-9243
▁Beaut	-9244
▁continuing	-9245
▁Fur	-9246
▁golf	-9247
▁ngơi	-9248
▁jun	-9249
▁Dầu	-9250
▁conservative	-9251
▁photographs	-9252
▁fears	-9253
eman	-9254
▁differences	-9255
▁mat	-9256
▁Invest	-9257
▁Ariz	-9258
▁Mua	-9259
▁dắt	-9260
▁hint	-9261
▁Jay	-9262
▁universe	-9263
▁territory	-9264
gs	-9265
▁thằng	-9266
▁adventures	-9267
▁adopted	-9268
▁Sant	-9269
▁chúa	-9270
ulations	-9271
▁Rh	-9272
EM	-9273
incess	-9274
▁tired	-9275
▁margin	-9276
▁Tokyo	-9277
▁Pu	-9278
▁rỡ	-9279
▁Univers	-9280
uge	-9281
▁Journal	-9282
▁painting	-9283
YT	-9284
▁Jam	-9285
encing	-9286
▁wine	-9287
▁materials	-9288
akh	-9289
▁intellect	-9290
▁divided	-9291
▁bón	-9292
▁chán	-9293
hus	-9294
▁opposed	-9295
ader	-9296
▁newly	-9297
▁upper	-9298
▁declared	-9299
▁producer	-9300
▁CSGT	-9301
▁mười	-9302
▁Empire	-9303
▁Cuba	-9304
▁Dutch	-9305
ici	-9306
▁honestly	-9307
▁environmental	-9308
▁Sony	-9309
▁chemistry	-9310
▁matters	-9311
▁khoan	-9312
▁presentation	-9313
▁calc	-9314
▁REA	-9315
▁Elect	-9316
▁Lần	-9317
▁seasons	-9318
▁nhẫn	-9319
▁hổ	-9320
▁Foundation	-9321
▁recession	-9322
inated	-9323
▁Stand	-9324
▁ức	-9325
ads	-9326
▁increasingly	-9327
▁pock	-9328
▁flo	-9329
ructed	-9330
▁Fe	-9331
vard	-9332
opher	-9333
▁Brian	-9334
▁split	-9335
▁Corn	-9336
▁Anne	-9337
CB	-9338
▁symbol	-9339
▁Looking	-9340
ployment	-9341
▁sympath	-9342
▁options	-9343
▁alongside	-9344
▁Cẩm	-9345
▁Linc	-9346
▁lung	-9347
▁phr	-9348
agues	-9349
▁khéo	-9350
▁Education	-9351
▁internal	-9352
oty	-9353
▁Santa	-9354
▁colors	-9355
▁confused	-9356
CO	-9357
izz	-9358
▁violent	-9359
▁listening	-9360
▁clever	-9361
▁wer	-9362
▁Lim	-9363
▁khói	-9364
▁Really	-9365
NĐ	-9366
▁guarant	-9367
gers	-9368
▁forest	-9369
▁anywhere	-9370
▁turner	-9371
utors	-9372
▁Nik	-9373
▁Cook	-9374
▁illness	-9375
▁NG	-9376
eps	-9377
▁lọt	-9378
▁Battle	-9379
▁đẻ	-9380
▁urban	-9381
▁serves	-9382
▁FBI	-9383
▁conver	-9384
rint	-9385
▁heo	-9386
▁carbon	-9387
▁exh	-9388
▁Islamic	-9389
▁Abd	-9390
▁error	-9391
acks	-9392
▁Wilson	-9393
▁Đơn	-9394
▁Cà	-9395
▁Davis	-9396
▁incredibly	-9397
▁gánh	-9398
▁nin	-9399
▁fallen	-9400
▁sons	-9401
▁dating	-9402
▁therap	-9403
▁Poland	-9404
▁closely	-9405
▁conducted	-9406
sters	-9407
▁NATO	-9408
▁System	-9409
▁correspond	-9410
▁Could	-9411
▁Us	-9412
iot	-9413
▁selection	-9414
▁consumer	-9415
▁anymore	-9416
inho	-9417
▁distinct	-9418
▁Si	-9419
▁xạ	-9420
▁emotion	-9421
yers	-9422
rical	-9423
▁protein	-9424
▁entr	-9425
▁causes	-9426
uten	-9427
▁Econom	-9428
▁raising	-9429
▁empty	-9430
▁backed	-9431
▁downt	-9432
FF	-9433
▁trọ	-9434
orage	-9435
▁promised	-9436
▁mile	-9437
▁adjust	-9438
olas	-9439
▁BHXH	-9440
▁Kir	-9441
▁Tiêu	-9442
▁patterns	-9443
rence	-9444
▁Christians	-9445
▁opinions	-9446
▁Spir	-9447
▁grace	-9448
▁instance	-9449
▁lỏng	-9450
▁marked	-9451
▁thoái	-9452
assion	-9453
eda	-9454
▁ám	-9455
▁Han	-9456
▁somewhere	-9457
▁everyday	-9458
▁reaching	-9459
▁critics	-9460
▁dynam	-9461
▁recognized	-9462
▁euro	-9463
▁Ali	-9464
▁secretary	-9465
ensions	-9466
▁exclus	-9467
▁device	-9468
▁Pa	-9469
▁Simon	-9470
▁memoir	-9471
▁sin	-9472
emat	-9473
▁protagonist	-9474
▁diagn	-9475
▁comprehensive	-9476
▁Major	-9477
▁chiêu	-9478
▁Nguồn	-9479
▁moder	-9480
▁Disney	-9481
▁drawing	-9482
▁Cru	-9483
▁expos	-9484
▁delivery	-9485
▁dọn	-9486
▁nồi	-9487
▁illegal	-9488
▁Loc	-9489
▁triều	-9490
▁stead	-9491
oing	-9492
▁supporters	-9493
▁doesnt	-9494
▁Golden	-9495
▁vươn	-9496
▁unlike	-9497
of	-9498
▁Ur	-9499
etts	-9500
▁enh	-9501
▁bid	-9502
▁vất	-9503
▁Lịch	-9504
inois	-9505
▁depend	-9506
▁proced	-9507
▁Had	-9508
▁application	-9509
▁seats	-9510
▁bổng	-9511
icked	-9512
▁Kev	-9513
▁Yến	-9514
▁reminded	-9515
▁PS	-9516
▁Nic	-9517
▁Miller	-9518
asion	-9519
▁educational	-9520
▁TAND	-9521
▁Tối	-9522
▁evolution	-9523
▁ON	-9524
▁contest	-9525
vention	-9526
▁Labour	-9527
▁posting	-9528
▁relax	-9529
▁carefully	-9530
▁sisters	-9531
ijing	-9532
▁blind	-9533
▁prose	-9534
▁confront	-9535
▁ngón	-9536
▁denied	-9537
▁khứ	-9538
▁eager	-9539
itary	-9540
ucks	-9541
estyle	-9542
aved	-9543
ucky	-9544
▁advertis	-9545
▁fict	-9546
▁request	-9547
▁mù	-9548
▁Jer	-9549
▁flag	-9550
▁Mùa	-9551
▁Again	-9552
orse	-9553
▁Gordon	-9554
▁armed	-9555
▁tam	-9556
▁cliff	-9557
▁disturb	-9558
▁skill	-9559
anity	-9560
▁filed	-9561
TA	-9562
ureau	-9563
▁resident	-9564
▁roles	-9565
▁Moo	-9566
▁nạp	-9567
▁sevent	-9568
▁ném	-9569
▁sacr	-9570
▁organizations	-9571
▁MS	-9572
▁dã	-9573
▁Lạc	-9574
ologies	-9575
▁threw	-9576
▁highlight	-9577
▁Dick	-9578
▁dozen	-9579
▁headqu	-9580
obe	-9581
▁confident	-9582
▁Beijing	-9583
itzer	-9584
▁causing	-9585
▁asks	-9586
▁outstanding	-9587
▁settled	-9588
▁Budd	-9589
▁expression	-9590
▁ngươi	-9591
▁Corp	-9592
▁Lincoln	-9593
bridge	-9594
▁premise	-9595
▁Free	-9596
pton	-9597
▁mồ	-9598
▁Thiện	-9599
ỉa	-9600
▁Film	-9601
oral	-9602
▁nụ	-9603
▁Che	-9604
▁dâng	-9605
▁Plan	-9606
▁Bro	-9607
▁Illinois	-9608
▁clar	-9609
▁touched	-9610
▁Corpor	-9611
▁traged	-9612
▁Ronaldo	-9613
▁Awards	-9614
▁grabbed	-9615
▁Bru	-9616
oa	-9617
▁Jordan	-9618
▁researchers	-9619
▁hàn	-9620
olves	-9621
▁channel	-9622
dney	-9623
▁mysterious	-9624
▁prominent	-9625
▁Cứ	-9626
▁marry	-9627
ensity	-9628
ema	-9629
Le	-9630
achus	-9631
▁Radio	-9632
▁Morgan	-9633
▁Hospital	-9634
▁phím	-9635
▁musc	-9636
▁equal	-9637
▁revolution	-9638
▁Bor	-9639
▁themes	-9640
▁Anton	-9641
▁ngu	-9642
▁mistakes	-9643
▁entertainment	-9644
▁bùng	-9645
▁Mun	-9646
▁manage	-9647
▁basically	-9648
▁assess	-9649
▁pilot	-9650
▁extensive	-9651
wen	-9652
▁proof	-9653
utation	-9654
▁tail	-9655
▁Myan	-9656
▁subjects	-9657
▁plain	-9658
▁Gre	-9659
▁ec	-9660
▁oxy	-9661
▁mì	-9662
▁Vo	-9663
▁possibility	-9664
uls	-9665
bi	-9666
▁NAS	-9667
▁lồng	-9668
▁unfold	-9669
▁SS	-9670
lessly	-9671
▁Meanwhile	-9672
▁loose	-9673
▁Bi	-9674
▁aged	-9675
▁mảng	-9676
▁Twitter	-9677
acc	-9678
▁decent	-9679
▁whisper	-9680
▁buried	-9681
▁chart	-9682
▁Turn	-9683
▁Develop	-9684
▁tact	-9685
▁survived	-9686
alo	-9687
woman	-9688
▁truck	-9689
▁Professor	-9690
▁Sad	-9691
▁applied	-9692
▁Cung	-9693
▁lấp	-9694
▁FI	-9695
▁meat	-9696
▁wounded	-9697
osis	-9698
▁principles	-9699
▁unlik	-9700
▁landsc	-9701
▁searching	-9702
▁nếp	-9703
▁NY	-9704
Tr	-9705
▁Thầy	-9706
▁Bad	-9707
named	-9708
roph	-9709
▁ngựa	-9710
▁Đi	-9711
▁Fed	-9712
▁lấn	-9713
▁recording	-9714
▁alt	-9715
▁mến	-9716
▁mâu	-9717
▁Wonder	-9718
▁duty	-9719
▁receiving	-9720
▁founder	-9721
▁Sel	-9722
▁Back	-9723
▁mo	-9724
▁nut	-9725
▁Tel	-9726
tel	-9727
▁studying	-9728
pers	-9729
▁Columbia	-9730
▁GDP	-9731
tháng	-9732
▁NEW	-9733
▁grandson	-9734
ews	-9735
▁refreshing	-9736
place	-9737
▁Hiệu	-9738
▁Vàng	-9739
▁guessing	-9740
▁acts	-9741
ưởi	-9742
▁Several	-9743
▁hasn	-9744
ìa	-9745
▁exception	-9746
▁daughters	-9747
▁assets	-9748
▁determine	-9749
▁Arm	-9750
▁practices	-9751
▁khoác	-9752
▁ruộng	-9753
▁Nations	-9754
▁elimin	-9755
▁Trái	-9756
▁bỗng	-9757
▁Anna	-9758
▁phiền	-9759
▁Team	-9760
▁audio	-9761
▁anth	-9762
arc	-9763
▁Greg	-9764
▁orders	-9765
▁improved	-9766
ilding	-9767
▁divers	-9768
▁nghiện	-9769
▁foundation	-9770
rad	-9771
▁MV	-9772
▁volunte	-9773
▁Nhóm	-9774
▁Mẫu	-9775
▁hưu	-9776
die	-9777
▁maintain	-9778
▁acquired	-9779
olly	-9780
AV	-9781
▁inher	-9782
▁Next	-9783
▁narrow	-9784
▁weird	-9785
▁solve	-9786
▁operated	-9787
onent	-9788
xi	-9789
▁Leon	-9790
▁Medic	-9791
iro	-9792
▁Thừa	-9793
▁Too	-9794
▁liều	-9795
▁discip	-9796
▁Rồi	-9797
▁Bàn	-9798
▁returns	-9799
▁bỏng	-9800
▁Myanmar	-9801
▁tráng	-9802
▁Holy	-9803
▁Jews	-9804
▁Bry	-9805
▁answered	-9806
▁Hầu	-9807
▁expans	-9808
▁Kevin	-9809
▁Beach	-9810
▁Colomb	-9811
▁recipe	-9812
▁lesson	-9813
ione	-9814
ún	-9815
mother	-9816
QT	-9817
▁Sab	-9818
▁Matth	-9819
▁Have	-9820
▁dò	-9821
rant	-9822
▁Fun	-9823
▁Mind	-9824
▁cooper	-9825
▁trained	-9826
▁damaged	-9827
▁Jess	-9828
▁facility	-9829
▁Vấn	-9830
▁đúc	-9831
oto	-9832
▁granted	-9833
▁stro	-9834
▁proved	-9835
enez	-9836
▁specifically	-9837
▁guns	-9838
▁defined	-9839
▁confusing	-9840
▁nhôm	-9841
iblical	-9842
▁Đừng	-9843
▁shel	-9844
▁lở	-9845
▁basketball	-9846
▁MU	-9847
▁alcohol	-9848
otte	-9849
▁shortly	-9850
▁Tương	-9851
▁lôi	-9852
▁absor	-9853
phia	-9854
▁discussed	-9855
▁stronger	-9856
▁Kỹ	-9857
▁substant	-9858
▁chip	-9859
laim	-9860
mony	-9861
▁enthus	-9862
▁LH	-9863
▁tur	-9864
ceived	-9865
achusetts	-9866
▁IM	-9867
ducing	-9868
▁sty	-9869
owa	-9870
▁immediate	-9871
▁institutions	-9872
▁mistake	-9873
▁hide	-9874
▁cous	-9875
▁comfortable	-9876
▁cutting	-9877
▁decline	-9878
▁Wars	-9879
▁sed	-9880
ipe	-9881
▁Director	-9882
▁Nap	-9883
▁Story	-9884
▁genu	-9885
▁lây	-9886
▁encourage	-9887
CL	-9888
▁Norm	-9889
asty	-9890
▁researched	-9891
▁fold	-9892
▁participate	-9893
▁Airlines	-9894
▁portion	-9895
▁đầm	-9896
▁thắt	-9897
▁Ep	-9898
▁củng	-9899
▁habit	-9900
▁trem	-9901
▁settings	-9902
pet	-9903
iki	-9904
▁Barcel	-9905
▁innov	-9906
▁exercise	-9907
▁brut	-9908
▁inspiration	-9909
▁dies	-9910
▁worldwide	-9911
▁shr	-9912
▁Bị	-9913
▁consp	-9914
▁Massachusetts	-9915
▁hyd	-9916
▁census	-9917
▁wrapped	-9918
▁trượt	-9919
▁capable	-9920
▁row	-9921
▁rarely	-9922
▁loans	-9923
inity	-9924
▁nhạt	-9925
ello	-9926
▁proud	-9927
▁commander	-9928
▁ruled	-9929
owned	-9930
▁reporters	-9931
▁Sydney	-9932
▁injuries	-9933
▁casual	-9934
▁featuring	-9935
▁gìn	-9936
▁Arizona	-9937
opter	-9938
▁mortgage	-9939
▁consumers	-9940
▁cells	-9941
▁Pers	-9942
▁semi	-9943
▁Stone	-9944
▁Conference	-9945
▁chap	-9946
▁sigh	-9947
▁Hit	-9948
▁Ross	-9949
▁ingred	-9950
▁dập	-9951
etime	-9952
▁controlled	-9953
▁versions	-9954
eping	-9955
▁trau	-9956
▁Barcelona	-9957
▁gentle	-9958
earl	-9959
▁Conf	-9960
▁attempted	-9961
lesh	-9962
▁tháp	-9963
▁vân	-9964
urer	-9965
▁roof	-9966
▁Moon	-9967
adelphia	-9968
elson	-9969
oga	-9970
▁Vận	-9971
▁Organ	-9972
ror	-9973
▁thats	-9974
▁sixth	-9975
▁Hart	-9976
▁actress	-9977
▁tick	-9978
▁publication	-9979
▁alleg	-9980
▁rực	-9981
▁Website	-9982
▁liberal	-9983
▁quét	-9984
▁Ministry	-9985
attan	-9986
▁Dream	-9987
▁girlfriend	-9988
▁mysteries	-9989
▁TM	-9990
▁wheel	-9991
omy	-9992
▁Online	-9993
iders	-9994
▁merg	-9995
father	-9996
umber	-9997
▁lover	-9998
▁Records	-9999
orses	-10000
▁graphic	-10001
▁motion	-10002
▁overcome	-10003
▁desk	-10004
▁birds	-10005
▁detective	-10006
▁unw	-10007
▁ruling	-10008
▁inqu	-10009
▁profession	-10010
amber	-10011
▁Lạt	-10012
▁faster	-10013
▁Loại	-10014
▁Cai	-10015
▁yellow	-10016
▁hanging	-10017
oos	-10018
▁vulner	-10019
▁Hou	-10020
▁secure	-10021
▁crimes	-10022
▁cooking	-10023
▁convin	-10024
agers	-10025
itage	-10026
▁finger	-10027
▁panel	-10028
rell	-10029
oli	-10030
▁Human	-10031
ubb	-10032
▁random	-10033
▁McG	-10034
▁Bat	-10035
▁mũ	-10036
▁false	-10037
▁dying	-10038
▁sạc	-10039
▁poly	-10040
▁Osc	-10041
▁soi	-10042
▁Cole	-10043
▁IV	-10044
▁settlement	-10045
▁trừng	-10046
▁Atlantic	-10047
row	-10048
uate	-10049
▁testing	-10050
▁doors	-10051
▁Pitt	-10052
▁translation	-10053
▁prohibited	-10054
▁facilities	-10055
▁impl	-10056
iny	-10057
▁adds	-10058
ivia	-10059
▁Vũng	-10060
▁Milan	-10061
▁Ngãi	-10062
▁bấm	-10063
▁tales	-10064
▁Financ	-10065
▁talked	-10066
▁hole	-10067
▁HN	-10068
▁Philadelphia	-10069
▁scandal	-10070
▁medal	-10071
▁assass	-10072
▁khôi	-10073
utional	-10074
▁nại	-10075
▁Cas	-10076
uan	-10077
usal	-10078
ulus	-10079
▁Vừa	-10080
▁bedroom	-10081
▁chinh	-10082
▁HIV	-10083
▁zone	-10084
▁boost	-10085
▁ties	-10086
▁Lyn	-10087
angel	-10088
▁harder	-10089
▁Xuất	-10090
▁Revolution	-10091
rary	-10092
▁Cass	-10093
ito	-10094
annah	-10095
▁egg	-10096
▁chee	-10097
▁Nhu	-10098
here	-10099
▁bail	-10100
icy	-10101
▁renew	-10102
▁hyp	-10103
▁intelligent	-10104
▁ti	-10105
otted	-10106
han	-10107
▁speaks	-10108
▁Ret	-10109
▁Sông	-10110
▁cried	-10111
▁revenue	-10112
▁multi	-10113
▁railway	-10114
▁till	-10115
chest	-10116
▁conscious	-10117
▁Kelly	-10118
▁neighb	-10119
▁nát	-10120
▁Family	-10121
ammed	-10122
wich	-10123
▁figured	-10124
mans	-10125
▁solo	-10126
ache	-10127
▁settle	-10128
▁complaint	-10129
▁extreme	-10130
▁Colorado	-10131
▁threatened	-10132
▁bảy	-10133
▁Nich	-10134
roit	-10135
▁touching	-10136
umps	-10137
▁khống	-10138
duct	-10139
▁Saudi	-10140
▁Manh	-10141
▁challenging	-10142
▁Đáng	-10143
▁constructed	-10144
▁swim	-10145
appy	-10146
uster	-10147
▁Phill	-10148
▁Cử	-10149
urities	-10150
▁weren	-10151
ami	-10152
▁Que	-10153
▁decides	-10154
▁Wolf	-10155
▁amid	-10156
iform	-10157
▁proposal	-10158
▁dừa	-10159
RA	-10160
▁Lệ	-10161
▁Yan	-10162
▁Financial	-10163
▁ped	-10164
▁ao	-10165
▁ourselves	-10166
▁hò	-10167
▁sưu	-10168
CE	-10169
▁scheme	-10170
▁attitude	-10171
▁rèn	-10172
▁Treas	-10173
▁visiting	-10174
▁BM	-10175
▁officially	-10176
▁extraord	-10177
gie	-10178
▁Howard	-10179
▁surgery	-10180
entic	-10181
▁xỉ	-10182
▁ngâm	-10183
▁Ball	-10184
▁rung	-10185
▁Sometimes	-10186
▁Tar	-10187
▁Line	-10188
▁revers	-10189
▁prepare	-10190
▁fate	-10191
▁races	-10192
▁tím	-10193
▁fictional	-10194
▁Honda	-10195
care	-10196
▁unlikely	-10197
▁lề	-10198
▁ordinary	-10199
athers	-10200
▁chain	-10201
▁voted	-10202
▁Clark	-10203
▁battles	-10204
▁Liêm	-10205
▁appearances	-10206
▁Esp	-10207
ante	-10208
▁campus	-10209
▁abandoned	-10210
itable	-10211
andy	-10212
▁Spe	-10213
▁soldier	-10214
▁Administr	-10215
▁ngạch	-10216
VER	-10217
▁upset	-10218
▁veget	-10219
▁Thêm	-10220
▁Gil	-10221
▁mal	-10222
gen	-10223
ashing	-10224
▁List	-10225
lad	-10226
▁elsewhere	-10227
▁khe	-10228
OOK	-10229
ums	-10230
▁aimed	-10231
bro	-10232
iner	-10233
▁arts	-10234
▁nhầm	-10235
▁Easy	-10236
▁Garden	-10237
olve	-10238
▁lát	-10239
bell	-10240
emen	-10241
▁Trời	-10242
jo	-10243
▁huyền	-10244
ograp	-10245
▁expanded	-10246
▁mượn	-10247
▁storage	-10248
orted	-10249
▁clients	-10250
atherine	-10251
▁Turk	-10252
acher	-10253
▁sốc	-10254
▁gifts	-10255
▁videos	-10256
▁height	-10257
▁trig	-10258
▁Mill	-10259
▁Ha	-10260
▁wondered	-10261
▁Cảm	-10262
▁Foreign	-10263
▁nén	-10264
▁unem	-10265
▁atm	-10266
▁discovery	-10267
▁Nat	-10268
eas	-10269
▁retirement	-10270
▁Chapter	-10271
umbled	-10272
▁letting	-10273
▁Rub	-10274
▁outs	-10275
▁curious	-10276
▁knock	-10277
▁Chứng	-10278
▁volunt	-10279
▁describing	-10280
▁Rick	-10281
▁paran	-10282
water	-10283
▁Charlie	-10284
onic	-10285
▁Nghi	-10286
▁raw	-10287
▁đồi	-10288
▁survival	-10289
▁Veg	-10290
▁thạch	-10291
▁Much	-10292
▁shopping	-10293
▁applications	-10294
▁mood	-10295
▁lít	-10296
▁designs	-10297
▁horrible	-10298
▁vacc	-10299
ẻo	-10300
▁Zh	-10301
▁Las	-10302
▁Marsh	-10303
▁abusive	-10304
ington	-10305
▁Avenue	-10306
▁Tan	-10307
▁ridic	-10308
▁humanity	-10309
▁lights	-10310
▁migr	-10311
▁soph	-10312
UB	-10313
▁covering	-10314
▁Being	-10315
▁Bos	-10316
▁Rules	-10317
▁titled	-10318
▁wake	-10319
▁kề	-10320
▁Tên	-10321
orders	-10322
▁blow	-10323
▁chênh	-10324
su	-10325
▁assigned	-10326
▁móng	-10327
▁recognize	-10328
▁beliefs	-10329
▁vạn	-10330
▁trick	-10331
ework	-10332
▁provoking	-10333
▁Patrick	-10334
▁rạng	-10335
omer	-10336
enna	-10337
▁Kl	-10338
▁locations	-10339
▁THIS	-10340
▁hired	-10341
▁vây	-10342
▁hilar	-10343
▁conversations	-10344
▁Alb	-10345
▁Les	-10346
▁Cây	-10347
▁chick	-10348
▁remarkable	-10349
rics	-10350
inder	-10351
▁inhab	-10352
▁lob	-10353
AY	-10354
▁SO	-10355
▁Ren	-10356
▁Đắk	-10357
▁Merc	-10358
▁welcome	-10359
▁lect	-10360
▁surviv	-10361
▁ABC	-10362
▁journalists	-10363
▁wave	-10364
rete	-10365
▁Diego	-10366
▁centuries	-10367
▁enforce	-10368
▁borr	-10369
▁BS	-10370
▁ơi	-10371
agu	-10372
▁engineering	-10373
▁Cy	-10374
▁lets	-10375
▁Field	-10376
▁Tinh	-10377
▁clubs	-10378
▁sending	-10379
omach	-10380
▁Heart	-10381
▁collected	-10382
▁Duke	-10383
▁determin	-10384
▁summ	-10385
▁cưỡng	-10386
▁Saf	-10387
ounsel	-10388
▁drinking	-10389
▁avo	-10390
▁Children	-10391
▁kil	-10392
initely	-10393
▁severe	-10394
▁breaks	-10395
▁convent	-10396
▁messages	-10397
▁thấu	-10398
▁isol	-10399
▁creates	-10400
▁Lập	-10401
asts	-10402
AF	-10403
uction	-10404
▁session	-10405
▁uncertain	-10406
▁Cost	-10407
▁rejected	-10408
xury	-10409
▁lứa	-10410
▁boot	-10411
asm	-10412
itled	-10413
▁argued	-10414
▁trinh	-10415
▁Special	-10416
▁múa	-10417
▁repet	-10418
▁passengers	-10419
▁greatly	-10420
▁magical	-10421
▁consists	-10422
▁deleg	-10423
apse	-10424
▁Kon	-10425
▁cents	-10426
▁Serb	-10427
▁adopt	-10428
▁reputation	-10429
▁outd	-10430
▁đệm	-10431
▁merely	-10432
▁waited	-10433
▁jumped	-10434
▁dramatic	-10435
▁Áo	-10436
attered	-10437
▁tiệm	-10438
pan	-10439
▁Hãng	-10440
stal	-10441
▁windows	-10442
▁xông	-10443
▁healing	-10444
▁successfully	-10445
▁appreciated	-10446
▁Bá	-10447
▁Dub	-10448
away	-10449
▁teeth	-10450
▁distract	-10451
▁Jason	-10452
▁unh	-10453
▁Moore	-10454
▁composed	-10455
▁factor	-10456
▁Portug	-10457
▁Province	-10458
▁đáy	-10459
▁Tp	-10460
▁transition	-10461
ibilities	-10462
▁Ocean	-10463
dad	-10464
▁WASHING	-10465
▁Sat	-10466
▁Thân	-10467
▁WASHINGTON	-10468
▁Mexican	-10469
▁Trao	-10470
▁fields	-10471
▁Wat	-10472
▁opens	-10473
▁bat	-10474
apping	-10475
▁tần	-10476
▁vuông	-10477
▁decor	-10478
ez	-10479
▁frag	-10480
▁tank	-10481
▁Captain	-10482
▁fool	-10483
▁shirt	-10484
▁drove	-10485
▁Medical	-10486
▁confirm	-10487
▁pregnant	-10488
▁Has	-10489
▁Iowa	-10490
▁subsequently	-10491
ivi	-10492
▁Jacob	-10493
▁kệ	-10494
ras	-10495
▁cloud	-10496
▁Independent	-10497
▁interviews	-10498
▁lucky	-10499
▁factors	-10500
▁nurs	-10501
▁throat	-10502
▁favorites	-10503
▁Xuyên	-10504
▁tragedy	-10505
▁Hal	-10506
▁careful	-10507
▁ôtô	-10508
▁torn	-10509
rees	-10510
▁attached	-10511
▁closing	-10512
▁Albert	-10513
▁medicine	-10514
▁witch	-10515
▁Detroit	-10516
▁bắp	-10517
▁Assembly	-10518
▁happiness	-10519
▁calm	-10520
▁HT	-10521
▁Grace	-10522
▁Tenn	-10523
▁devast	-10524
▁Thấy	-10525
▁politician	-10526
▁mand	-10527
▁Quyền	-10528
▁kar	-10529
▁NN	-10530
▁taxes	-10531
▁thầm	-10532
rett	-10533
▁Marg	-10534
▁QL	-10535
▁cow	-10536
▁Mitch	-10537
▁resolution	-10538
▁explaining	-10539
▁cay	-10540
oen	-10541
▁racing	-10542
▁CT	-10543
▁CIA	-10544
stream	-10545
▁đớn	-10546
▁ngợi	-10547
equ	-10548
▁buýt	-10549
break	-10550
▁consec	-10551
▁Niger	-10552
▁lovers	-10553
umin	-10554
▁agencies	-10555
▁blend	-10556
▁advertising	-10557
▁Allen	-10558
gian	-10559
▁Anderson	-10560
▁Yêu	-10561
▁Tín	-10562
▁ki	-10563
▁Es	-10564
▁fulf	-10565
▁manh	-10566
▁Morr	-10567
▁talented	-10568
▁nảy	-10569
▁kindle	-10570
▁moon	-10571
▁invent	-10572
irates	-10573
▁Lt	-10574
▁stomach	-10575
orial	-10576
▁liqu	-10577
▁lying	-10578
▁blame	-10579
▁ngào	-10580
▁PT	-10581
▁Điển	-10582
▁Âm	-10583
▁quant	-10584
▁Đạt	-10585
▁insightful	-10586
antry	-10587
inter	-10588
▁lót	-10589
▁thổi	-10590
▁tụng	-10591
▁Mà	-10592
▁politicians	-10593
▁lùi	-10594
▁nho	-10595
▁rushed	-10596
overty	-10597
losure	-10598
▁xơ	-10599
▁legend	-10600
osm	-10601
▁Live	-10602
▁mặn	-10603
▁lon	-10604
▁Network	-10605
▁pulling	-10606
iments	-10607
▁HP	-10608
▁Roy	-10609
▁Books	-10610
▁Food	-10611
rome	-10612
▁tap	-10613
▁fir	-10614
▁consequences	-10615
ographer	-10616
▁formal	-10617
ori	-10618
▁Arthur	-10619
▁fraud	-10620
▁mộng	-10621
formation	-10622
▁rooms	-10623
▁biography	-10624
▁cert	-10625
**	-10626
▁satisfying	-10627
▁Championships	-10628
ectives	-10629
▁Venez	-10630
▁EP	-10631
▁towns	-10632
bie	-10633
▁kiêm	-10634
▁Kể	-10635
▁struggled	-10636
▁Trust	-10637
▁khoăn	-10638
▁ồn	-10639
▁Ale	-10640
abul	-10641
▁analysts	-10642
▁Tháp	-10643
▁attrib	-10644
▁piano	-10645
▁Project	-10646
▁agents	-10647
▁disag	-10648
▁graduated	-10649
▁achieved	-10650
▁banking	-10651
▁Sĩ	-10652
▁Care	-10653
▁user	-10654
▁revel	-10655
▁lam	-10656
▁rot	-10657
▁má	-10658
▁Program	-10659
▁FC	-10660
▁chép	-10661
▁badly	-10662
▁ethnic	-10663
▁Anthony	-10664
▁lăn	-10665
▁Five	-10666
▁Alan	-10667
▁teenage	-10668
▁Spirit	-10669
▁Gib	-10670
▁Quá	-10671
▁prayer	-10672
▁Hugh	-10673
▁vess	-10674
▁quái	-10675
acles	-10676
▁lộn	-10677
▁promoted	-10678
▁Andre	-10679
▁begun	-10680
▁nhắm	-10681
▁awards	-10682
▁kinds	-10683
▁DO	-10684
▁folks	-10685
▁chemical	-10686
▁sanh	-10687
▁chanh	-10688
▁Dead	-10689
▁resulted	-10690
▁remembered	-10691
▁equally	-10692
▁thousand	-10693
▁authentic	-10694
eted	-10695
worth	-10696
▁royal	-10697
▁convinced	-10698
▁Point	-10699
▁damn	-10700
▁languages	-10701
▁focuses	-10702
▁Hawai	-10703
▁fro	-10704
▁Siêu	-10705
▁Gree	-10706
▁Lie	-10707
▁khơi	-10708
▁Cập	-10709
▁Lời	-10710
▁disaster	-10711
▁acid	-10712
▁minds	-10713
▁gram	-10714
▁steel	-10715
▁helic	-10716
▁phơi	-10717
▁Đúng	-10718
IP	-10719
▁parall	-10720
▁obst	-10721
▁suspected	-10722
agraph	-10723
▁category	-10724
▁worthy	-10725
DC	-10726
▁Houston	-10727
DS	-10728
▁tong	-10729
▁delightful	-10730
▁Hotel	-10731
▁Diện	-10732
▁đành	-10733
▁ngọc	-10734
▁march	-10735
enny	-10736
▁nicely	-10737
ternal	-10738
▁effectively	-10739
▁subsid	-10740
▁mayor	-10741
rait	-10742
▁flesh	-10743
MS	-10744
▁barrel	-10745
▁Trẻ	-10746
▁lỡ	-10747
▁Whit	-10748
▁column	-10749
▁forecast	-10750
▁Does	-10751
▁lõi	-10752
▁Fle	-10753
elve	-10754
▁Murray	-10755
▁invited	-10756
▁châm	-10757
▁Ener	-10758
▁sym	-10759
▁nhan	-10760
iami	-10761
▁frame	-10762
▁governments	-10763
▁wars	-10764
▁profile	-10765
▁scoring	-10766
▁fixed	-10767
▁Bir	-10768
▁briefly	-10769
▁bow	-10770
▁Dor	-10771
▁headquarters	-10772
▁GR	-10773
▁storyt	-10774
▁tea	-10775
ran	-10776
▁descend	-10777
▁pounds	-10778
▁weapon	-10779
▁Head	-10780
▁permanent	-10781
ishment	-10782
▁forgotten	-10783
▁gián	-10784
▁pow	-10785
▁compens	-10786
olis	-10787
▁goods	-10788
nie	-10789
resents	-10790
▁lunch	-10791
ika	-10792
ounce	-10793
▁Pier	-10794
▁Susan	-10795
▁Governor	-10796
▁ôn	-10797
▁Đồ	-10798
▁educated	-10799
▁traveling	-10800
▁editing	-10801
▁Watch	-10802
▁scholar	-10803
▁bướ	-10804
▁graduate	-10805
▁teens	-10806
osphere	-10807
▁Stock	-10808
▁excit	-10809
EE	-10810
▁imper	-10811
▁Sud	-10812
▁Manhattan	-10813
▁convicted	-10814
ulpt	-10815
▁regulations	-10816
▁gũi	-10817
isms	-10818
▁ceremony	-10819
▁intrigue	-10820
▁Aff	-10821
▁suffer	-10822
▁OK	-10823
▁communication	-10824
▁resulting	-10825
▁Carter	-10826
abe	-10827
▁Motor	-10828
▁Development	-10829
onto	-10830
ecess	-10831
▁Hold	-10832
▁Thùy	-10833
▁offices	-10834
no	-10835
▁Chân	-10836
▁CO	-10837
▁lăng	-10838
▁agricult	-10839
▁Bridge	-10840
▁enjoys	-10841
▁reviewers	-10842
▁Bagh	-10843
▁Carr	-10844
orne	-10845
▁independence	-10846
▁desert	-10847
▁epic	-10848
▁gre	-10849
▁absolute	-10850
▁ideal	-10851
▁Services	-10852
▁transferred	-10853
▁opportunities	-10854
▁spr	-10855
▁Chuyện	-10856
▁Oscar	-10857
▁Chair	-10858
▁expansion	-10859
rum	-10860
▁resort	-10861
allas	-10862
▁Andy	-10863
▁poems	-10864
▁Venezuel	-10865
weight	-10866
▁Môn	-10867
child	-10868
▁dust	-10869
MT	-10870
▁Everything	-10871
▁hated	-10872
▁Roll	-10873
▁saving	-10874
▁Space	-10875
▁oldest	-10876
▁Ts	-10877
▁Word	-10878
▁ngài	-10879
▁Enjoy	-10880
peror	-10881
▁devices	-10882
▁lưỡng	-10883
▁Lots	-10884
▁chả	-10885
▁dốc	-10886
▁zomb	-10887
▁ranked	-10888
▁horses	-10889
▁Mour	-10890
▁băn	-10891
▁printed	-10892
▁intellectual	-10893
▁rum	-10894
agram	-10895
▁represents	-10896
issa	-10897
▁SEA	-10898
▁beside	-10899
ifi	-10900
ịt	-10901
ngày	-10902
▁trag	-10903
▁commitment	-10904
▁spell	-10905
▁seed	-10906
▁rig	-10907
▁Ga	-10908
zens	-10909
ii	-10910
▁nose	-10911
▁stared	-10912
▁Miami	-10913
life	-10914
▁hụt	-10915
ION	-10916
erald	-10917
rene	-10918
▁grandd	-10919
▁hãi	-10920
▁reward	-10921
▁hoc	-10922
▁khái	-10923
iti	-10924
▁Josh	-10925
▁Nhạc	-10926
▁attraction	-10927
▁Bích	-10928
▁innocent	-10929
▁tear	-10930
▁lật	-10931
▁blank	-10932
▁pushing	-10933
▁supplies	-10934
▁advis	-10935
▁Ult	-10936
▁papers	-10937
▁oblig	-10938
▁telep	-10939
▁sam	-10940
▁Len	-10941
▁tonight	-10942
▁tựu	-10943
▁journalist	-10944
▁Engine	-10945
heim	-10946
▁penalty	-10947
▁Oxford	-10948
▁Viettel	-10949
taining	-10950
▁Death	-10951
▁Global	-10952
▁Capital	-10953
mates	-10954
▁Ak	-10955
▁Short	-10956
▁controversial	-10957
▁Start	-10958
▁iPad	-10959
▁excess	-10960
Bank	-10961
▁Ten	-10962
▁Tác	-10963
▁Minnes	-10964
▁Sac	-10965
▁elder	-10966
▁AL	-10967
▁lists	-10968
▁luồng	-10969
▁Circ	-10970
▁phế	-10971
▁Cameron	-10972
▁affili	-10973
▁dồn	-10974
▁vở	-10975
▁outcome	-10976
▁lifestyle	-10977
▁roads	-10978
▁annoying	-10979
▁cai	-10980
▁Ru	-10981
▁festival	-10982
▁poorly	-10983
▁Dược	-10984
▁eval	-10985
▁hở	-10986
▁Tường	-10987
bal	-10988
inking	-10989
▁hunt	-10990
▁coloring	-10991
▁lưỡi	-10992
▁paragraph	-10993
▁Sports	-10994
▁Bah	-10995
▁bull	-10996
▁meetings	-10997
▁Turkey	-10998
▁Corporation	-10999
▁poverty	-11000
ugby	-11001
▁grass	-11002
chang	-11003
▁DNA	-11004
▁publish	-11005
abet	-11006
▁Polish	-11007
▁chè	-11008
▁textbook	-11009
▁lân	-11010
ogether	-11011
▁competed	-11012
▁wins	-11013
▁Ku	-11014
▁Centre	-11015
ovic	-11016
▁cul	-11017
acter	-11018
▁măng	-11019
IR	-11020
▁Ins	-11021
▁Vegas	-11022
▁beneath	-11023
▁Đan	-11024
▁Buff	-11025
▁Minnesota	-11026
▁dời	-11027
▁maps	-11028
▁flights	-11029
▁regularly	-11030
▁Đàm	-11031
▁persu	-11032
amental	-11033
▁Treasury	-11034
▁Bishop	-11035
▁maximum	-11036
▁manages	-11037
▁profound	-11038
▁solutions	-11039
▁Mong	-11040
▁gã	-11041
▁Hind	-11042
▁phổi	-11043
▁wire	-11044
▁Corps	-11045
▁mart	-11046
▁lifted	-11047
▁Mas	-11048
▁Dùng	-11049
▁Patt	-11050
▁Order	-11051
▁climb	-11052
▁rộn	-11053
▁hed	-11054
▁reveals	-11055
▁excitement	-11056
▁programme	-11057
▁obtained	-11058
▁Lear	-11059
iga	-11060
▁publishing	-11061
▁Spring	-11062
▁alien	-11063
▁Nhơn	-11064
▁portrayed	-11065
▁subsequent	-11066
▁explore	-11067
▁physic	-11068
▁episodes	-11069
▁Christianity	-11070
▁Jennifer	-11071
▁chiết	-11072
▁VP	-11073
▁Bao	-11074
ches	-11075
▁manip	-11076
▁ups	-11077
▁Ni	-11078
▁shots	-11079
onia	-11080
▁darkness	-11081
▁Chợ	-11082
▁hilarious	-11083
eland	-11084
▁Shop	-11085
fol	-11086
ouri	-11087
▁betray	-11088
belie	-11089
▁emerged	-11090
▁necessarily	-11091
▁bồn	-11092
▁trân	-11093
▁rhy	-11094
▁informed	-11095
▁lake	-11096
▁YouT	-11097
ortion	-11098
▁Kansas	-11099
▁Ry	-11100
▁Chia	-11101
▁mòn	-11102
▁CR	-11103
▁lands	-11104
▁Six	-11105
▁staying	-11106
▁coord	-11107
▁stake	-11108
▁xi	-11109
cho	-11110
▁BC	-11111
iracy	-11112
▁Agency	-11113
▁Hur	-11114
▁administrative	-11115
▁classroom	-11116
▁bible	-11117
▁Hamilton	-11118
▁silence	-11119
▁HC	-11120
▁sensitive	-11121
▁Dave	-11122
▁exercises	-11123
otes	-11124
▁thread	-11125
▁Burn	-11126
▁FD	-11127
▁select	-11128
▁grandmother	-11129
▁tia	-11130
▁couples	-11131
▁hiếu	-11132
avor	-11133
LE	-11134
▁pound	-11135
▁Sign	-11136
▁intention	-11137
▁heading	-11138
▁regions	-11139
▁seemingly	-11140
▁Balt	-11141
ycle	-11142
▁mươi	-11143
▁Content	-11144
▁ingredients	-11145
ighth	-11146
enh	-11147
▁Huệ	-11148
word	-11149
fast	-11150
▁impressive	-11151
▁compassion	-11152
▁withdraw	-11153
▁vib	-11154
▁Iranian	-11155
▁teaches	-11156
▁Hiến	-11157
▁genus	-11158
▁Raj	-11159
aeda	-11160
▁commonly	-11161
Ind	-11162
▁bunch	-11163
▁~	-11164
rim	-11165
▁Palestinian	-11166
▁risks	-11167
enda	-11168
▁lawyers	-11169
itals	-11170
▁prepar	-11171
▁dạo	-11172
▁mỉ	-11173
▁Low	-11174
▁advertisements	-11175
▁dội	-11176
▁Bây	-11177
▁Adv	-11178
▁principal	-11179
esis	-11180
▁shoulders	-11181
▁attracted	-11182
bar	-11183
▁electronic	-11184
iversary	-11185
▁learns	-11186
▁reluct	-11187
▁grin	-11188
▁VH	-11189
▁Chắc	-11190
▁Harris	-11191
aunt	-11192
▁logo	-11193
▁Defense	-11194
agg	-11195
zed	-11196
▁Bri	-11197
▁bế	-11198
▁YouTube	-11199
▁accompan	-11200
▁Harvard	-11201
▁vặt	-11202
▁extent	-11203
▁cốc	-11204
oren	-11205
▁Wright	-11206
▁nâu	-11207
▁khôn	-11208
▁arguments	-11209
▁mate	-11210
▁approval	-11211
▁Tỷ	-11212
▁distribution	-11213
▁Đôi	-11214
▁promote	-11215
▁everywhere	-11216
▁urg	-11217
▁uncle	-11218
▁hoại	-11219
eding	-11220
▁Key	-11221
▁trials	-11222
▁sounded	-11223
▁string	-11224
nger	-11225
▁bored	-11226
uri	-11227
▁circle	-11228
▁viewing	-11229
▁reporting	-11230
▁wealthy	-11231
▁teenager	-11232
▁shipping	-11233
▁Tuyết	-11234
▁Nơi	-11235
atar	-11236
▁Country	-11237
▁Cooper	-11238
▁Ye	-11239
leans	-11240
▁Tho	-11241
▁extraordinary	-11242
▁wet	-11243
▁Xô	-11244
▁êm	-11245
gging	-11246
▁murdered	-11247
onna	-11248
olen	-11249
▁Maryland	-11250
▁Marine	-11251
▁disappointing	-11252
▁sướng	-11253
▁dates	-11254
▁draws	-11255
▁properties	-11256
omi	-11257
▁programming	-11258
rous	-11259
awn	-11260
▁profanity	-11261
▁fairy	-11262
▁đùa	-11263
▁refuge	-11264
▁colorful	-11265
▁passes	-11266
▁conven	-11267
▁Indust	-11268
▁crossed	-11269
▁entitled	-11270
▁spoken	-11271
▁Lục	-11272
▁terrorist	-11273
▁nights	-11274
▁instrument	-11275
▁mob	-11276
▁medium	-11277
▁Mức	-11278
▁Main	-11279
▁vacation	-11280
oni	-11281
▁customer	-11282
▁Further	-11283
▁rebu	-11284
iden	-11285
▁Management	-11286
▁behavi	-11287
▁guest	-11288
▁Christopher	-11289
▁DC	-11290
▁navig	-11291
▁corruption	-11292
▁Alice	-11293
▁association	-11294
▁Without	-11295
▁Dean	-11296
UY	-11297
endar	-11298
▁Phân	-11299
▁repeatedly	-11300
eper	-11301
▁technique	-11302
▁Beat	-11303
▁rolled	-11304
acked	-11305
▁Gener	-11306
▁Điền	-11307
▁Everyone	-11308
▁FPT	-11309
▁reminds	-11310
erse	-11311
arrass	-11312
▁Dal	-11313
▁LOVE	-11314
ompson	-11315
▁thoảng	-11316
iley	-11317
emic	-11318
▁foods	-11319
▁Row	-11320
▁nhở	-11321
▁Alaska	-11322
▁charming	-11323
▁painful	-11324
▁exposed	-11325
athy	-11326
rys	-11327
▁Woods	-11328
▁Baghdad	-11329
▁paranormal	-11330
▁invasion	-11331
▁Quả	-11332
▁tab	-11333
▁experiment	-11334
▁Kiếm	-11335
▁gray	-11336
▁pocket	-11337
▁notable	-11338
▁Toronto	-11339
▁replied	-11340
▁colleagues	-11341
▁ghé	-11342
▁steal	-11343
▁counsel	-11344
▁bread	-11345
▁Energy	-11346
▁picking	-11347
▁Station	-11348
▁Rachel	-11349
▁sculpt	-11350
▁Creek	-11351
▁HĐQT	-11352
▁roughly	-11353
▁Tol	-11354
▁heroes	-11355
▁negotiations	-11356
▁scary	-11357
Index	-11358
▁painted	-11359
▁commentary	-11360
▁unn	-11361
▁bôi	-11362
char	-11363
lete	-11364
▁waters	-11365
erb	-11366
▁hal	-11367
▁touchdown	-11368
▁Mang	-11369
▁McK	-11370
▁vợt	-11371
bits	-11372
▁arrival	-11373
alled	-11374
▁Atlanta	-11375
ủa	-11376
▁neph	-11377
▁chẩn	-11378
▁disappointment	-11379
NA	-11380
▁gym	-11381
▁Đêm	-11382
▁Inn	-11383
▁Lin	-11384
▁xí	-11385
esh	-11386
▁hesit	-11387
▁Silver	-11388
▁depression	-11389
hips	-11390
▁remote	-11391
▁links	-11392
▁warming	-11393
▁devoted	-11394
oria	-11395
▁valid	-11396
▁Fund	-11397
ounced	-11398
▁Cá	-11399
▁Deb	-11400
▁na	-11401
▁Senator	-11402
▁Got	-11403
unction	-11404
▁Winter	-11405
▁stab	-11406
▁Giê	-11407
▁Beth	-11408
▁vampires	-11409
▁militants	-11410
▁mutual	-11411
▁Hait	-11412
▁desp	-11413
▁mac	-11414
▁neur	-11415
▁impression	-11416
▁optim	-11417
▁BOOK	-11418
oving	-11419
▁hiding	-11420
▁shaped	-11421
erk	-11422
atures	-11423
▁surge	-11424
▁chém	-11425
▁Stew	-11426
▁tru	-11427
▁accessible	-11428
▁nạ	-11429
▁producing	-11430
ols	-11431
▁Chap	-11432
▁Messi	-11433
▁Thompson	-11434
▁rh	-11435
▁equival	-11436
▁manual	-11437
▁Set	-11438
▁McD	-11439
▁voting	-11440
▁sugar	-11441
▁Origin	-11442
▁hiền	-11443
▁nerv	-11444
▁distingu	-11445
▁Administration	-11446
▁occasionally	-11447
▁photography	-11448
aux	-11449
▁Take	-11450
▁Kal	-11451
▁ID	-11452
▁Bố	-11453
▁relative	-11454
▁Use	-11455
▁blast	-11456
▁điên	-11457
▁Priv	-11458
▁khép	-11459
▁Unt	-11460
▁Unlike	-11461
▁vỉa	-11462
▁enlight	-11463
▁SU	-11464
▁tip	-11465
▁visitors	-11466
▁Quán	-11467
▁trơn	-11468
▁MT	-11469
▁Nazi	-11470
urers	-11471
▁sofa	-11472
▁Aw	-11473
▁plots	-11474
▁affairs	-11475
▁Roberts	-11476
▁destruction	-11477
▁Math	-11478
▁dil	-11479
▁repro	-11480
ikh	-11481
▁Hunter	-11482
▁limits	-11483
▁THCS	-11484
aria	-11485
▁Common	-11486
▁fled	-11487
▁guid	-11488
▁Gun	-11489
▁cock	-11490
▁Queens	-11491
▁Wy	-11492
▁hill	-11493
▁gross	-11494
▁harsh	-11495
▁surprises	-11496
enz	-11497
▁significantly	-11498
▁trains	-11499
▁embarrass	-11500
▁container	-11501
▁Indiana	-11502
▁affair	-11503
▁Week	-11504
▁properly	-11505
umped	-11506
▁Grant	-11507
▁ĐB	-11508
▁folk	-11509
▁shed	-11510
▁ease	-11511
▁cro	-11512
▁cousin	-11513
▁Mourinho	-11514
▁Ngôi	-11515
▁choo	-11516
▁BĐS	-11517
▁clot	-11518
▁GT	-11519
▁trâu	-11520
▁formerly	-11521
▁massage	-11522
▁cin	-11523
▁Toán	-11524
▁dưa	-11525
▁congress	-11526
▁shocked	-11527
▁collapse	-11528
ographic	-11529
▁sufficient	-11530
aco	-11531
▁Phía	-11532
osition	-11533
▁Dallas	-11534
▁Yah	-11535
▁overwhelming	-11536
▁landscape	-11537
▁Dig	-11538
▁lường	-11539
udes	-11540
▁narrator	-11541
ructure	-11542
▁quạt	-11543
▁hoài	-11544
▁Parker	-11545
▁Nad	-11546
anie	-11547
eem	-11548
▁Engagement	-11549
▁uniform	-11550
aval	-11551
▁shout	-11552
▁gaze	-11553
▁tragic	-11554
▁shadow	-11555
▁Sem	-11556
▁furn	-11557
▁ministry	-11558
▁Luke	-11559
uther	-11560
▁Tib	-11561
▁occupied	-11562
▁sentences	-11563
▁Copy	-11564
aping	-11565
▁Stars	-11566
▁Anyone	-11567
eler	-11568
▁edited	-11569
▁Orleans	-11570
▁Run	-11571
▁Non	-11572
▁passenger	-11573
▁tomorrow	-11574
▁caring	-11575
▁Reserve	-11576
ancer	-11577
▁Sri	-11578
▁Tuổi	-11579
ista	-11580
▁courts	-11581
▁argue	-11582
▁municipality	-11583
assy	-11584
▁Hop	-11585
▁silent	-11586
▁wrest	-11587
▁hận	-11588
▁Hang	-11589
▁assistance	-11590
▁quotes	-11591
▁rush	-11592
▁shame	-11593
▁SC	-11594
▁Domin	-11595
▁exhaust	-11596
▁Ath	-11597
▁Publ	-11598
▁psychological	-11599
▁Nice	-11600
▁Library	-11601
▁assign	-11602
▁NFL	-11603
FC	-11604
▁prize	-11605
▁pled	-11606
▁mí	-11607
ombank	-11608
▁discount	-11609
▁wo	-11610
▁Khan	-11611
▁deserves	-11612
▁preventing	-11613
▁suppose	-11614
ando	-11615
▁performing	-11616
▁participated	-11617
▁Perfect	-11618
▁om	-11619
▁favourite	-11620
▁surrounded	-11621
▁surely	-11622
ặm	-11623
▁sương	-11624
▁fewer	-11625
▁Early	-11626
▁encouraged	-11627
▁essentially	-11628
▁Sin	-11629
▁burned	-11630
ayer	-11631
▁Mộc	-11632
onn	-11633
▁purposes	-11634
▁Fu	-11635
▁Dri	-11636
▁Pope	-11637
ện	-11638
utives	-11639
▁inters	-11640
ardo	-11641
ulating	-11642
▁mò	-11643
▁strict	-11644
▁nhí	-11645
theless	-11646
▁Bạc	-11647
▁firms	-11648
▁volumes	-11649
zech	-11650
▁Phùng	-11651
istrib	-11652
▁Democrat	-11653
▁Gary	-11654
▁Ast	-11655
▁Dougl	-11656
▁Base	-11657
▁ngự	-11658
▁Ott	-11659
▁dozens	-11660
▁deck	-11661
▁Nguyệt	-11662
▁đắn	-11663
▁client	-11664
▁bonus	-11665
▁granddaughter	-11666
backs	-11667
▁disappeared	-11668
▁vạch	-11669
▁influenced	-11670
▁Om	-11671
▁thưa	-11672
utenant	-11673
▁reject	-11674
▁Chile	-11675
▁buông	-11676
▁atmosphere	-11677
▁ash	-11678
▁scar	-11679
▁Father	-11680
ORK	-11681
▁respectively	-11682
▁Seattle	-11683
▁Gates	-11684
▁enforcement	-11685
▁cự	-11686
▁protests	-11687
▁ultimate	-11688
▁gal	-11689
▁creatures	-11690
▁Barca	-11691
▁rated	-11692
▁Sóc	-11693
▁utter	-11694
bourne	-11695
▁tower	-11696
▁compete	-11697
▁Phủ	-11698
▁tested	-11699
▁Fab	-11700
▁Jong	-11701
cker	-11702
▁entrance	-11703
▁NT	-11704
idency	-11705
jan	-11706
▁Roger	-11707
▁chron	-11708
▁Soph	-11709
▁côn	-11710
pes	-11711
▁Rio	-11712
▁mountains	-11713
lined	-11714
▁Thus	-11715
▁Krist	-11716
▁scared	-11717
arks	-11718
▁NHNN	-11719
▁Beautiful	-11720
▁gorge	-11721
▁reviewer	-11722
▁performances	-11723
▁assert	-11724
▁deputy	-11725
▁prisoners	-11726
▁satisfied	-11727
▁arc	-11728
▁Polit	-11729
▁Which	-11730
▁gathered	-11731
▁Triển	-11732
▁Bảng	-11733
stan	-11734
▁khoảnh	-11735
▁Ark	-11736
▁involvement	-11737
▁Mountain	-11738
▁gro	-11739
▁Born	-11740
▁Airport	-11741
▁thirty	-11742
▁merc	-11743
▁Dow	-11744
▁investing	-11745
▁peak	-11746
▁desperate	-11747
▁democracy	-11748
▁fundamental	-11749
▁assumed	-11750
▁shoes	-11751
▁pressed	-11752
▁females	-11753
▁Đàn	-11754
▁suggestions	-11755
▁plate	-11756
▁locked	-11757
▁Blood	-11758
▁Swiss	-11759
▁bench	-11760
▁operate	-11761
▁quir	-11762
▁pill	-11763
▁CM	-11764
▁suối	-11765
▁logic	-11766
▁nghiêng	-11767
▁gãy	-11768
▁readable	-11769
olitan	-11770
▁spokeswoman	-11771
▁documentary	-11772
▁Kit	-11773
▁registered	-11774
IDS	-11775
▁preparing	-11776
▁beating	-11777
▁Ứ	-11778
inging	-11779
▁CTC	-11780
ateur	-11781
▁apolog	-11782
▁employed	-11783
▁dở	-11784
▁ARC	-11785
▁vóc	-11786
▁Mand	-11787
▁vách	-11788
▁hadn	-11789
▁automatically	-11790
▁succeeded	-11791
▁writings	-11792
▁Croat	-11793
▁bol	-11794
▁phase	-11795
▁gender	-11796
▁Fa	-11797
▁singing	-11798
▁chậu	-11799
adesh	-11800
oyd	-11801
▁Ian	-11802
▁fruit	-11803
▁@	-11804
▁tons	-11805
uties	-11806
▁percentage	-11807
▁giọt	-11808
▁warri	-11809
▁grandfather	-11810
▁yield	-11811
▁xá	-11812
▁lùng	-11813
▁Czech	-11814
▁ow	-11815
ateful	-11816
▁Vlad	-11817
▁jury	-11818
▁chuối	-11819
▁pron	-11820
▁factory	-11821
▁Channel	-11822
▁transp	-11823
▁theater	-11824
▁Hoặc	-11825
▁Fant	-11826
▁Fal	-11827
ogen	-11828
wa	-11829
▁ongoing	-11830
▁joining	-11831
fit	-11832
essee	-11833
▁illustrated	-11834
▁Đánh	-11835
▁connections	-11836
▁ớt	-11837
▁Gene	-11838
▁Potter	-11839
▁genius	-11840
▁zero	-11841
ifies	-11842
▁Rights	-11843
▁Emma	-11844
▁léo	-11845
uez	-11846
▁concluded	-11847
▁Py	-11848
▁Exec	-11849
▁BR	-11850
▁bội	-11851
▁lip	-11852
▁divorce	-11853
▁resign	-11854
eness	-11855
▁ngoan	-11856
▁Labor	-11857
▁phe	-11858
▁dệt	-11859
▁Sport	-11860
▁lộc	-11861
▁Theatre	-11862
▁toss	-11863
chant	-11864
▁actors	-11865
▁Matthew	-11866
▁FR	-11867
▁jew	-11868
▁protected	-11869
▁Nothing	-11870
▁lin	-11871
▁punch	-11872
▁lifetime	-11873
▁Stadium	-11874
▁unbelie	-11875
▁wise	-11876
▁reporter	-11877
abilities	-11878
▁Between	-11879
▁ướt	-11880
▁regime	-11881
▁demands	-11882
abled	-11883
▁intrigued	-11884
▁Technology	-11885
▁visa	-11886
▁diam	-11887
▁khoai	-11888
▁Age	-11889
▁Mô	-11890
▁USB	-11891
▁weakness	-11892
▁Tuần	-11893
▁grant	-11894
▁hái	-11895
▁Person	-11896
ppy	-11897
▁lặp	-11898
alia	-11899
▁rear	-11900
▁companion	-11901
▁lắc	-11902
▁kẹt	-11903
▁refle	-11904
▁Band	-11905
▁pig	-11906
▁summit	-11907
▁trùm	-11908
▁phenomen	-11909
▁tuyết	-11910
▁weigh	-11911
▁bankrupt	-11912
▁LED	-11913
▁consecutive	-11914
▁voices	-11915
orable	-11916
▁directions	-11917
▁surf	-11918
▁recognition	-11919
lock	-11920
▁ocean	-11921
▁hip	-11922
▁Ive	-11923
urse	-11924
▁personnel	-11925
▁flowers	-11926
▁decre	-11927
elli	-11928
▁ticket	-11929
▁deploy	-11930
▁containing	-11931
ovo	-11932
▁worker	-11933
lights	-11934
▁nám	-11935
▁comparison	-11936
▁personalities	-11937
▁emotionally	-11938
▁twin	-11939
▁đứt	-11940
▁cua	-11941
▁robot	-11942
▁Palin	-11943
▁indicated	-11944
▁assume	-11945
kept	-11946
aming	-11947
▁Find	-11948
▁cạn	-11949
▁clothing	-11950
▁unemployment	-11951
▁trắc	-11952
▁terrorism	-11953
▁vĩnh	-11954
▁Philip	-11955
▁humorous	-11956
▁Var	-11957
▁Fer	-11958
▁instant	-11959
▁flew	-11960
▁discussions	-11961
▁Judge	-11962
▁bass	-11963
▁bin	-11964
▁vulnerable	-11965
▁Batt	-11966
▁opera	-11967
▁explanations	-11968
▁regardless	-11969
▁superb	-11970
▁Cult	-11971
▁seventh	-11972
▁nominated	-11973
▁stere	-11974
▁grounds	-11975
▁voi	-11976
USD	-11977
▁auto	-11978
▁witty	-11979
▁buff	-11980
TH	-11981
▁Definitely	-11982
don	-11983
iscal	-11984
aoke	-11985
▁rỉ	-11986
▁Abb	-11987
▁Tennessee	-11988
▁sạt	-11989
▁ski	-11990
▁Marie	-11991
▁wash	-11992
▁ol	-11993
▁marks	-11994
▁gom	-11995
▁playoff	-11996
▁objects	-11997
▁Trả	-11998
▁explo	-11999
▁hosted	-12000
▁admir	-12001
▁kẽ	-12002
▁mèo	-12003
▁tongue	-12004
▁von	-12005
▁xà	-12006
▁announcement	-12007
▁por	-12008
▁Nelson	-12009
▁trăng	-12010
▁Square	-12011
▁dỡ	-12012
▁Ve	-12013
▁femin	-12014
▁lacking	-12015
regon	-12016
▁generations	-12017
▁cafe	-12018
▁sympt	-12019
▁Ext	-12020
▁Bond	-12021
▁Pent	-12022
icate	-12023
▁Phiên	-12024
Ph	-12025
▁toys	-12026
▁Jonathan	-12027
▁PCC	-12028
▁satell	-12029
▁Case	-12030
icking	-12031
▁Guide	-12032
▁Nok	-12033
▁vú	-12034
▁mature	-12035
▁arrive	-12036
▁Trắng	-12037
holders	-12038
▁Comments	-12039
▁Lad	-12040
ospel	-12041
reprene	-12042
▁interactive	-12043
▁LA	-12044
▁nương	-12045
▁dãy	-12046
▁chances	-12047
▁wore	-12048
▁Kem	-12049
▁burning	-12050
▁smell	-12051
▁wings	-12052
▁executives	-12053
viation	-12054
▁christ	-12055
ml	-12056
▁smoke	-12057
▁ES	-12058
▁lowest	-12059
CD	-12060
▁VĐ	-12061
▁fright	-12062
▁Euro	-12063
▁PL	-12064
▁sụt	-12065
▁quát	-12066
▁seller	-12067
▁Pict	-12068
zo	-12069
▁enorm	-12070
▁gác	-12071
▁breast	-12072
mouth	-12073
▁resistance	-12074
▁publicly	-12075
▁serial	-12076
▁wonderfully	-12077
▁Rain	-12078
▁nứt	-12079
▁concrete	-12080
▁anonym	-12081
▁Ay	-12082
▁đọng	-12083
▁Ki	-12084
▁conqu	-12085
▁silly	-12086
▁Amy	-12087
▁captivating	-12088
▁sixt	-12089
emet	-12090
▁PGS	-12091
▁Od	-12092
▁Right	-12093
▁curren	-12094
▁Gulf	-12095
▁awareness	-12096
▁đằng	-12097
▁Forest	-12098
▁collaps	-12099
▁Cry	-12100
▁queen	-12101
▁qui	-12102
▁ancest	-12103
▁Conc	-12104
pass	-12105
▁anniversary	-12106
▁highway	-12107
▁twelve	-12108
▁Bought	-12109
▁hòn	-12110
▁Represent	-12111
▁BKS	-12112
▁walks	-12113
▁mộc	-12114
▁Job	-12115
▁Terry	-12116
▁NASA	-12117
▁Bowl	-12118
▁passage	-12119
▁Hi	-12120
▁Vis	-12121
▁rally	-12122
▁CB	-12123
▁unfortunately	-12124
▁designer	-12125
▁Khê	-12126
▁Vợ	-12127
aro	-12128
▁responded	-12129
▁đới	-12130
▁Chú	-12131
▁supern	-12132
▁Mother	-12133
▁implic	-12134
▁Holl	-12135
▁haun	-12136
▁urged	-12137
omfort	-12138
▁architecture	-12139
▁nắp	-12140
xic	-12141
▁landing	-12142
rast	-12143
▁paintings	-12144
▁schedule	-12145
▁bills	-12146
▁warn	-12147
▁parish	-12148
▁flows	-12149
uki	-12150
▁males	-12151
▁Phường	-12152
▁dirty	-12153
▁occasional	-12154
▁Hitler	-12155
▁FOR	-12156
▁khuy	-12157
riel	-12158
▁constitu	-12159
▁chặng	-12160
▁radical	-12161
▁Castle	-12162
▁Neither	-12163
▁Buddh	-12164
▁failing	-12165
▁guidance	-12166
▁gắt	-12167
▁cược	-12168
▁mắm	-12169
burn	-12170
▁Walker	-12171
▁MTV	-12172
▁Il	-12173
▁rao	-12174
▁Bruce	-12175
dr	-12176
list	-12177
▁Hamp	-12178
▁delicious	-12179
▁representing	-12180
▁roots	-12181
▁strategies	-12182
organ	-12183
▁travels	-12184
ugg	-12185
▁Cậu	-12186
▁households	-12187
▁Tech	-12188
▁Lisa	-12189
▁ngột	-12190
stop	-12191
▁exceed	-12192
▁dated	-12193
▁Oregon	-12194
▁hunting	-12195
onsin	-12196
usalem	-12197
▁sne	-12198
▁bướm	-12199
▁drivers	-12200
▁Bes	-12201
▁sập	-12202
▁Greece	-12203
▁quit	-12204
▁Duyên	-12205
▁Muốn	-12206
▁Mobile	-12207
▁luân	-12208
▁Connect	-12209
▁crucial	-12210
▁courses	-12211
▁dressed	-12212
▁Robinson	-12213
▁Along	-12214
▁Interesting	-12215
▁rapidly	-12216
▁refers	-12217
▁gripping	-12218
▁definition	-12219
▁trium	-12220
▁Tông	-12221
▁Swedish	-12222
▁Friend	-12223
▁Stat	-12224
▁Cửu	-12225
▁glanced	-12226
▁Douglas	-12227
▁tê	-12228
▁accomm	-12229
▁Wisc	-12230
▁efficient	-12231
▁Him	-12232
▁temporary	-12233
▁astron	-12234
even	-12235
▁difficulty	-12236
aturally	-12237
▁SV	-12238
III	-12239
▁Kay	-12240
agged	-12241
elia	-12242
▁mathemat	-12243
▁hearts	-12244
▁nan	-12245
▁insurg	-12246
▁à	-12247
▁Prize	-12248
▁testim	-12249
▁fabulous	-12250
▁Khai	-12251
▁calendar	-12252
ricane	-12253
▁Joy	-12254
▁Tower	-12255
▁tech	-12256
▁Addition	-12257
▁cy	-12258
under	-12259
dy	-12260
ching	-12261
▁premi	-12262
fire	-12263
▁Dur	-12264
▁platforms	-12265
▁BE	-12266
▁involves	-12267
▁Băng	-12268
▁stages	-12269
▁Box	-12270
▁mans	-12271
▁civilian	-12272
▁prost	-12273
▁Save	-12274
hai	-12275
▁subm	-12276
▁inev	-12277
ete	-12278
▁Stewart	-12279
▁Sỹ	-12280
▁castle	-12281
▁Qaeda	-12282
▁wound	-12283
vy	-12284
▁whispered	-12285
▁vital	-12286
▁Stanley	-12287
▁franch	-12288
▁bless	-12289
xual	-12290
▁entering	-12291
▁twisted	-12292
▁increases	-12293
aug	-12294
▁approached	-12295
▁Palace	-12296
▁Wisconsin	-12297
▁replacement	-12298
▁suspects	-12299
▁hao	-12300
▁overt	-12301
odox	-12302
▁beer	-12303
itarian	-12304
▁Front	-12305
▁blocks	-12306
anes	-12307
▁rere	-12308
▁hey	-12309
kward	-12310
▁Thích	-12311
▁Gard	-12312
impse	-12313
▁Nether	-12314
▁Cow	-12315
▁dối	-12316
▁Alf	-12317
▁enemies	-12318
▁tám	-12319
▁dealt	-12320
▁reun	-12321
▁đụng	-12322
▁mau	-12323
▁Trận	-12324
angle	-12325
▁stadium	-12326
pa	-12327
▁Lại	-12328
erning	-12329
▁tùng	-12330
▁Bé	-12331
▁WWII	-12332
▁hitting	-12333
▁villages	-12334
▁await	-12335
▁CNTT	-12336
▁cycle	-12337
▁veteran	-12338
emon	-12339
▁proph	-12340
▁disappear	-12341
zer	-12342
▁Design	-12343
▁Fern	-12344
raf	-12345
▁equivalent	-12346
▁lũy	-12347
▁ignored	-12348
▁worlds	-12349
▁weekly	-12350
▁cited	-12351
▁dũng	-12352
▁thoughtful	-12353
aos	-12354
▁Search	-12355
▁inches	-12356
inations	-12357
▁Jake	-12358
▁pulls	-12359
▁transmission	-12360
▁Walter	-12361
▁BHYT	-12362
▁Colombia	-12363
▁nomination	-12364
▁confusion	-12365
▁Fel	-12366
▁tao	-12367
▁bik	-12368
▁bog	-12369
▁traveled	-12370
▁Sweden	-12371
▁Edwards	-12372
▁membership	-12373
▁theories	-12374
▁claiming	-12375
▁Scar	-12376
▁Ứng	-12377
▁Sex	-12378
weet	-12379
▁rắc	-12380
▁Ferr	-12381
▁wished	-12382
▁Whether	-12383
▁q	-12384
▁Brun	-12385
▁glimpse	-12386
▁Nokia	-12387
▁suspended	-12388
▁inflation	-12389
▁computers	-12390
▁Khang	-12391
▁Ther	-12392
▁Sáu	-12393
▁signal	-12394
▁Railway	-12395
▁Graham	-12396
▁churches	-12397
▁Hans	-12398
▁Entertain	-12399
▁clock	-12400
▁qualified	-12401
mate	-12402
▁Thẩm	-12403
▁undert	-12404
▁charts	-12405
▁awful	-12406
CK	-12407
▁Colon	-12408
agger	-12409
▁butter	-12410
▁coalition	-12411
▁Highly	-12412
▁incomp	-12413
▁tràng	-12414
▁ridiculous	-12415
▁potentially	-12416
▁triumph	-12417
▁fishing	-12418
▁starring	-12419
▁Laura	-12420
▁racial	-12421
▁Islands	-12422
▁restaurants	-12423
lah	-12424
▁happily	-12425
▁Chúc	-12426
▁Cấp	-12427
ieties	-12428
▁compr	-12429
▁Phố	-12430
eating	-12431
aware	-12432
▁dear	-12433
▁everybody	-12434
▁abroad	-12435
▁frank	-12436
▁ùn	-12437
▁ngô	-12438
▁chánh	-12439
▁crying	-12440
aha	-12441
▁giàn	-12442
▁degrees	-12443
▁overlook	-12444
umm	-12445
▁Dòng	-12446
▁electricity	-12447
▁xích	-12448
▁preferred	-12449
aun	-12450
▁NBC	-12451
▁condem	-12452
▁Thuế	-12453
▁Kaz	-12454
▁Craig	-12455
▁upgr	-12456
▁leaned	-12457
liest	-12458
▁Ll	-12459
▁Kap	-12460
▁maintained	-12461
▁chat	-12462
▁priest	-12463
▁separated	-12464
mir	-12465
piece	-12466
olph	-12467
▁Giáp	-12468
▁sci	-12469
duces	-12470
▁skept	-12471
▁Missouri	-12472
▁dat	-12473
▁insisted	-12474
▁Nhung	-12475
▁cream	-12476
▁sample	-12477
▁Exchange	-12478
cover	-12479
▁liquid	-12480
▁Smart	-12481
▁cable	-12482
▁suspenseful	-12483
▁artwork	-12484
▁Sean	-12485
ERS	-12486
▁junior	-12487
▁Venezuela	-12488
▁sáp	-12489
▁LG	-12490
▁sustain	-12491
▁instantly	-12492
▁shelf	-12493
leep	-12494
▁gai	-12495
▁Lane	-12496
prise	-12497
▁pit	-12498
▁quãng	-12499
▁gorgeous	-12500
▁Xanh	-12501
▁guards	-12502
▁Fast	-12503
▁competitive	-12504
maker	-12505
▁ráp	-12506
▁Until	-12507
▁Hell	-12508
▁awkward	-12509
zh	-12510
ifice	-12511
▁Tibet	-12512
▁overseas	-12513
▁representative	-12514
MA	-12515
lett	-12516
▁Supp	-12517
▁cruel	-12518
▁revenge	-12519
▁backing	-12520
▁reasonable	-12521
▁payments	-12522
▁Pay	-12523
▁bấy	-12524
▁họng	-12525
▁Brothers	-12526
▁Community	-12527
▁hoành	-12528
▁guilt	-12529
▁noise	-12530
▁allies	-12531
oned	-12532
▁PCCC	-12533
▁Màu	-12534
▁Adams	-12535
▁puzzle	-12536
▁Subsc	-12537
▁gap	-12538
▁profits	-12539
▁Seoul	-12540
ilation	-12541
▁Leban	-12542
▁alike	-12543
▁trop	-12544
▁hiếp	-12545
▁Dubai	-12546
▁Past	-12547
▁troubled	-12548
▁tennis	-12549
▁occurs	-12550
▁besides	-12551
▁wooden	-12552
▁rồng	-12553
▁accommod	-12554
▁Thất	-12555
rogen	-12556
▁knee	-12557
▁Should	-12558
▁promotion	-12559
istol	-12560
▁classical	-12561
acon	-12562
▁Trade	-12563
▁lụt	-12564
▁rape	-12565
KT	-12566
▁centers	-12567
▁xen	-12568
▁Dog	-12569
▁VTV	-12570
▁Cann	-12571
▁spots	-12572
▁Turkish	-12573
▁charity	-12574
▁fixing	-12575
▁Editor	-12576
▁retreat	-12577
▁grows	-12578
▁relatives	-12579
▁phẳng	-12580
▁emissions	-12581
ressing	-12582
▁Rivers	-12583
▁YORK	-12584
atched	-12585
emetery	-12586
▁listened	-12587
▁util	-12588
aching	-12589
▁criticized	-12590
▁landed	-12591
▁đê	-12592
▁Cảng	-12593
▁cóc	-12594
▁pink	-12595
▁Bear	-12596
▁Rodrig	-12597
▁Ă	-12598
▁deliber	-12599
▁singles	-12600
▁improvement	-12601
imir	-12602
▁sleeping	-12603
▁dur	-12604
▁lap	-12605
▁networks	-12606
▁xô	-12607
▁dish	-12608
▁prol	-12609
▁minimum	-12610
▁functions	-12611
▁Jerusalem	-12612
▁superior	-12613
▁kỉ	-12614
▁Raf	-12615
▁treasure	-12616
▁complaints	-12617
▁reign	-12618
case	-12619
▁designated	-12620
▁phanh	-12621
▁Iron	-12622
▁Bách	-12623
▁tum	-12624
▁Cre	-12625
▁Third	-12626
▁Kings	-12627
▁interior	-12628
▁Barbara	-12629
gly	-12630
▁kiệt	-12631
▁depos	-12632
▁temple	-12633
▁Brig	-12634
otal	-12635
▁Viết	-12636
▁partly	-12637
▁purchasing	-12638
▁Yahoo	-12639
▁genuine	-12640
utt	-12641
▁cod	-12642
▁agenda	-12643
▁encouraging	-12644
omed	-12645
▁existed	-12646
▁albums	-12647
▁structures	-12648
▁Emily	-12649
▁grateful	-12650
▁Nev	-12651
▁demons	-12652
▁xay	-12653
QG	-12654
▁jur	-12655
▁coc	-12656
▁Cố	-12657
▁tremend	-12658
▁lift	-12659
▁Ko	-12660
▁bọ	-12661
▁VFF	-12662
▁Bỉ	-12663
iah	-12664
▁dải	-12665
▁unnecess	-12666
▁telephone	-12667
▁fier	-12668
ctr	-12669
▁therapy	-12670
▁earthqu	-12671
League	-12672
otton	-12673
▁Entertainment	-12674
aders	-12675
▁bathroom	-12676
ohn	-12677
▁ni	-12678
▁regarded	-12679
berry	-12680
▁descriptive	-12681
▁Griff	-12682
▁balls	-12683
▁sid	-12684
avi	-12685
▁Pakistani	-12686
▁axit	-12687
▁dull	-12688
▁Things	-12689
▁SL	-12690
▁formation	-12691
▁Shi	-12692
chi	-12693
▁cám	-12694
HS	-12695
▁nhì	-12696
▁Sân	-12697
iture	-12698
▁finals	-12699
▁Vạn	-12700
▁Miền	-12701
▁HAG	-12702
▁manufacturing	-12703
▁cắn	-12704
coin	-12705
▁poem	-12706
▁comprom	-12707
▁ròng	-12708
orious	-12709
phy	-12710
ensed	-12711
▁civilians	-12712
▁squee	-12713
▁Staff	-12714
▁persons	-12715
▁loyal	-12716
▁tivi	-12717
▁enthusi	-12718
▁nobody	-12719
▁golden	-12720
▁overview	-12721
▁xăm	-12722
brid	-12723
▁vành	-12724
▁concise	-12725
▁Insp	-12726
▁Vice	-12727
▁ào	-12728
chen	-12729
▁recru	-12730
▁nervous	-12731
▁frustrated	-12732
▁acted	-12733
EP	-12734
▁Taiwan	-12735
▁subtle	-12736
▁Hỗ	-12737
kok	-12738
▁voluntarily	-12739
matic	-12740
▁Vô	-12741
▁Lạp	-12742
▁Doctor	-12743
▁terrific	-12744
▁Warren	-12745
render	-12746
▁exists	-12747
▁Gram	-12748
▁mothers	-12749
irts	-12750
arted	-12751
vation	-12752
▁Subscribe	-12753
▁chén	-12754
▁nhức	-12755
wick	-12756
▁gard	-12757
▁Antonio	-12758
oenix	-12759
▁historian	-12760
▁sâm	-12761
▁threatening	-12762
ÔNG	-12763
▁bits	-12764
▁ốm	-12765
ulty	-12766
▁brave	-12767
▁thịnh	-12768
▁los	-12769
▁battery	-12770
▁Khắc	-12771
▁GI	-12772
▁displ	-12773
abad	-12774
▁Cambridge	-12775
▁vary	-12776
▁Knight	-12777
andra	-12778
▁YA	-12779
▁attempting	-12780
▁cann	-12781
▁dominated	-12782
▁ray	-12783
▁evident	-12784
▁BTC	-12785
▁ghét	-12786
lar	-12787
▁Gaza	-12788
▁handled	-12789
▁Hor	-12790
lie	-12791
▁pale	-12792
▁immigrants	-12793
▁arranged	-12794
▁attractive	-12795
▁texts	-12796
▁Java	-12797
breaking	-12798
▁lawmakers	-12799
▁throwing	-12800
▁Arabia	-12801
▁riding	-12802
▁pup	-12803
▁checked	-12804
▁Hawaii	-12805
▁Der	-12806
iry	-12807
rat	-12808
iva	-12809
▁Brooklyn	-12810
ensely	-12811
▁todd	-12812
▁possess	-12813
▁abilities	-12814
▁heal	-12815
▁pursue	-12816
zing	-12817
▁Peace	-12818
▁chocol	-12819
▁carries	-12820
ologists	-12821
▁deadly	-12822
▁multim	-12823
▁Dragon	-12824
▁Gov	-12825
cedes	-12826
▁Trì	-12827
▁Express	-12828
▁invested	-12829
▁emphasis	-12830
▁renamed	-12831
▁Hus	-12832
▁toler	-12833
▁theatre	-12834
mble	-12835
▁giang	-12836
▁obsc	-12837
aron	-12838
▁tưới	-12839
▁Campbell	-12840
▁sword	-12841
ieval	-12842
lem	-12843
▁inhabit	-12844
▁redistrib	-12845
▁Mississ	-12846
sky	-12847
una	-12848
▁wre	-12849
▁Mars	-12850
ifting	-12851
▁savings	-12852
▁holes	-12853
▁Vy	-12854
▁Boe	-12855
▁viewed	-12856
▁Lăng	-12857
▁temperature	-12858
ippi	-12859
▁consistent	-12860
▁butt	-12861
▁neighbour	-12862
▁stolen	-12863
TN	-12864
▁accompanied	-12865
▁IF	-12866
▁venture	-12867
▁miêu	-12868
adows	-12869
▁Lawrence	-12870
▁parallel	-12871
▁partnership	-12872
othy	-12873
atively	-12874
▁updated	-12875
▁grief	-12876
▁chê	-12877
▁parking	-12878
▁interrupt	-12879
▁LI	-12880
▁virtually	-12881
▁recipient	-12882
▁healthcare	-12883
▁Margaret	-12884
▁quyển	-12885
esc	-12886
▁facebook	-12887
▁cởi	-12888
▁nhược	-12889
▁depict	-12890
▁Netherlands	-12891
▁ALL	-12892
▁edit	-12893
▁ngần	-12894
▁physics	-12895
▁fits	-12896
▁surve	-12897
▁Bow	-12898
▁Buy	-12899
▁overly	-12900
onze	-12901
▁lặn	-12902
▁Rand	-12903
▁heaven	-12904
▁disclosure	-12905
▁hố	-12906
▁stable	-12907
▁Kentucky	-12908
▁Cư	-12909
▁earnings	-12910
▁findings	-12911
▁steady	-12912
low	-12913
▁Mall	-12914
St	-12915
▁súc	-12916
oker	-12917
▁delivers	-12918
oup	-12919
▁đòn	-12920
▁fiscal	-12921
▁Vật	-12922
▁Imp	-12923
▁contributions	-12924
▁Executive	-12925
▁Ward	-12926
ifications	-12927
ropolitan	-12928
ensional	-12929
▁dại	-12930
imental	-12931
▁meal	-12932
▁supernatural	-12933
▁ưng	-12934
▁owns	-12935
▁kingdom	-12936
▁Alab	-12937
▁Ec	-12938
▁managing	-12939
▁districts	-12940
iev	-12941
▁Gò	-12942
igen	-12943
▁đạc	-12944
▁Sudan	-12945
▁cuồng	-12946
▁beginner	-12947
▁ngưng	-12948
▁Chairman	-12949
▁Louisiana	-12950
eras	-12951
▁dồi	-12952
▁diverse	-12953
▁Đảo	-12954
▁establishment	-12955
▁engage	-12956
▁fee	-12957
tha	-12958
▁employee	-12959
▁Juan	-12960
▁essays	-12961
▁Diệu	-12962
tering	-12963
▁KCN	-12964
▁thrill	-12965
▁drum	-12966
▁ligh	-12967
▁Building	-12968
▁deserve	-12969
▁depending	-12970
MB	-12971
▁fake	-12972
▁judges	-12973
▁visits	-12974
▁lui	-12975
▁instruction	-12976
òm	-12977
▁Hoạt	-12978
▁requirements	-12979
▁disg	-12980
▁converted	-12981
▁torture	-12982
▁Pitts	-12983
▁teenagers	-12984
amps	-12985
▁Billy	-12986
▁absence	-12987
▁xưng	-12988
▁nghịch	-12989
▁Mort	-12990
▁guests	-12991
▁focusing	-12992
QH	-12993
▁Charlotte	-12994
▁shake	-12995
▁substantial	-12996
riers	-12997
▁quietly	-12998
XX	-12999
▁intim	-13000
▁suspic	-13001
▁kiều	-13002
▁Trăng	-13003
▁sentenced	-13004
▁drawings	-13005
▁kiềm	-13006
▁Năng	-13007
▁stops	-13008
▁turb	-13009
▁fails	-13010
▁Bloom	-13011
▁Princess	-13012
mers	-13013
UST	-13014
▁jazz	-13015
assador	-13016
▁AB	-13017
▁metaph	-13018
bow	-13019
▁fees	-13020
uz	-13021
▁pione	-13022
▁FIFA	-13023
▁Ahmad	-13024
▁xao	-13025
asha	-13026
mont	-13027
▁oan	-13028
usted	-13029
erto	-13030
▁targets	-13031
▁scientist	-13032
po	-13033
▁cọc	-13034
▁coinc	-13035
acute	-13036
▁addressed	-13037
▁knife	-13038
▁allegations	-13039
▁engineer	-13040
▁YOU	-13041
▁subscript	-13042
▁bitter	-13043
arre	-13044
▁Warner	-13045
▁bold	-13046
▁Đèn	-13047
▁Tạo	-13048
▁Yanke	-13049
▁chôn	-13050
▁Jimmy	-13051
▁rẽ	-13052
▁wides	-13053
▁Aqu	-13054
veland	-13055
▁Bit	-13056
isk	-13057
ilit	-13058
▁Sách	-13059
▁Michelle	-13060
▁sẹo	-13061
▁repeat	-13062
▁Small	-13063
▁questioned	-13064
▁Mach	-13065
▁neat	-13066
elta	-13067
cription	-13068
▁nephew	-13069
▁bands	-13070
rastructure	-13071
▁Benn	-13072
esty	-13073
▁Tùy	-13074
▁refere	-13075
▁observed	-13076
▁shes	-13077
▁mild	-13078
▁Nancy	-13079
▁úy	-13080
▁obser	-13081
biz	-13082
▁relie	-13083
▁Mayor	-13084
▁reminder	-13085
▁interaction	-13086
▁NO	-13087
▁Biết	-13088
▁Reb	-13089
▁vocal	-13090
▁rational	-13091
▁hoãn	-13092
▁chuông	-13093
▁threats	-13094
▁Russell	-13095
▁Cape	-13096
star	-13097
▁Justin	-13098
▁stem	-13099
▁shouldn	-13100
▁concerning	-13101
▁grasp	-13102
▁viewers	-13103
incial	-13104
▁discovers	-13105
▁dict	-13106
▁summary	-13107
▁challenged	-13108
▁rét	-13109
▁creep	-13110
▁sail	-13111
▁entreprene	-13112
▁symptoms	-13113
▁Viễn	-13114
▁opponents	-13115
▁rụng	-13116
▁Wayne	-13117
▁dispute	-13118
▁Oak	-13119
▁Tranh	-13120
▁Ka	-13121
▁luxury	-13122
pread	-13123
acular	-13124
▁óc	-13125
▁bong	-13126
▁Transport	-13127
▁Hán	-13128
▁Cương	-13129
▁Bangkok	-13130
ographical	-13131
ếch	-13132
▁span	-13133
▁Buổi	-13134
▁farmers	-13135
ls	-13136
iper	-13137
▁Vua	-13138
iable	-13139
▁introduce	-13140
▁fabric	-13141
▁Ot	-13142
▁tớ	-13143
▁gifted	-13144
▁Switzer	-13145
▁downtown	-13146
▁versus	-13147
▁Dy	-13148
▁abrupt	-13149
▁investigate	-13150
▁Keep	-13151
ENT	-13152
▁importantly	-13153
iciency	-13154
▁Bull	-13155
▁escaped	-13156
▁disturbing	-13157
▁dismissed	-13158
▁Native	-13159
▁nốt	-13160
▁Kỷ	-13161
▁Athlet	-13162
alion	-13163
▁chay	-13164
▁tape	-13165
▁processes	-13166
▁Thuốc	-13167
▁ignore	-13168
▁buồng	-13169
▁dẹp	-13170
▁update	-13171
▁referring	-13172
▁milk	-13173
hran	-13174
▁radar	-13175
quis	-13176
rived	-13177
▁founding	-13178
▁movements	-13179
iary	-13180
▁Lạng	-13181
▁Rout	-13182
▁Liêu	-13183
▁mài	-13184
▁FM	-13185
▁SJ	-13186
▁translated	-13187
etr	-13188
▁demanded	-13189
▁Muslims	-13190
▁Trưng	-13191
▁tỏi	-13192
▁equity	-13193
inge	-13194
bled	-13195
▁substance	-13196
iac	-13197
▁Gon	-13198
▁determination	-13199
▁True	-13200
▁exhibition	-13201
▁Ăn	-13202
▁fortun	-13203
▁thám	-13204
▁Cleveland	-13205
bast	-13206
▁repair	-13207
▁xám	-13208
▁READ	-13209
▁custody	-13210
▁PP	-13211
▁Mười	-13212
▁Highway	-13213
essa	-13214
ẻm	-13215
▁tickets	-13216
▁Lank	-13217
▁tempt	-13218
▁Pass	-13219
ogan	-13220
▁outr	-13221
▁roller	-13222
▁Cond	-13223
western	-13224
▁tò	-13225
▁strategic	-13226
very	-13227
▁grammar	-13228
▁Bảy	-13229
▁Meg	-13230
▁dai	-13231
▁minority	-13232
▁rạp	-13233
▁ministers	-13234
▁dragon	-13235
▁difficulties	-13236
▁flaws	-13237
▁xót	-13238
▁lock	-13239
▁cành	-13240
▁khoái	-13241
▁defensive	-13242
▁periods	-13243
▁thiêng	-13244
▁beings	-13245
▁Phot	-13246
▁lầu	-13247
▁chật	-13248
▁Khối	-13249
SA	-13250
▁shit	-13251
▁Switzerland	-13252
▁Suz	-13253
▁breathing	-13254
▁Bart	-13255
ications	-13256
ILL	-13257
▁swall	-13258
▁Env	-13259
▁memorable	-13260
▁Nhiệt	-13261
▁investigating	-13262
▁Kurd	-13263
▁recovered	-13264
▁Shin	-13265
▁phrase	-13266
▁Chrys	-13267
▁missile	-13268
▁immigration	-13269
▁neut	-13270
▁promises	-13271
addy	-13272
▁tú	-13273
▁Magic	-13274
▁Jos	-13275
▁passages	-13276
▁HTX	-13277
▁icon	-13278
▁license	-13279
▁angst	-13280
fare	-13281
▁cleared	-13282
▁DJ	-13283
▁frequent	-13284
▁Final	-13285
▁allegedly	-13286
▁conspiracy	-13287
▁Carib	-13288
▁staring	-13289
▁Model	-13290
▁mirror	-13291
▁Barry	-13292
▁Mississippi	-13293
▁hoà	-13294
▁winners	-13295
▁Report	-13296
▁Chế	-13297
▁accomplish	-13298
▁municipal	-13299
▁camps	-13300
▁resigned	-13301
▁trips	-13302
▁canc	-13303
▁Standard	-13304
▁Opp	-13305
▁Lượng	-13306
thodox	-13307
▁đun	-13308
▁bàng	-13309
ques	-13310
▁forcing	-13311
▁artistic	-13312
▁Hungary	-13313
▁hopefully	-13314
▁acknowledged	-13315
▁Modern	-13316
▁lội	-13317
▁QU	-13318
▁cultures	-13319
▁rib	-13320
▁Ji	-13321
ctic	-13322
▁Evans	-13323
▁điền	-13324
▁nhã	-13325
▁Trình	-13326
▁Diệp	-13327
▁praise	-13328
LY	-13329
▁reserv	-13330
idelines	-13331
chestra	-13332
▁odds	-13333
▁Hills	-13334
▁disrupt	-13335
▁captures	-13336
▁popularity	-13337
▁Living	-13338
▁mông	-13339
▁nhăn	-13340
▁irrit	-13341
▁correctly	-13342
▁extension	-13343
idays	-13344
▁evac	-13345
▁grey	-13346
▁widespread	-13347
▁insist	-13348
▁Pel	-13349
▁AFP	-13350
omic	-13351
uated	-13352
▁Mitchell	-13353
▁Finn	-13354
ếm	-13355
▁Expl	-13356
▁Jen	-13357
TTQ	-13358
▁employment	-13359
▁solar	-13360
▁convince	-13361
▁contribution	-13362
▁Sức	-13363
▁picks	-13364
▁Trạch	-13365
▁rể	-13366
▁handling	-13367
▁delayed	-13368
▁cúm	-13369
▁render	-13370
▁survivors	-13371
ixon	-13372
▁fleet	-13373
▁laser	-13374
▁Crown	-13375
net	-13376
▁Military	-13377
▁bùn	-13378
▁thrilled	-13379
▁convention	-13380
▁thun	-13381
▁karaoke	-13382
▁subt	-13383
▁Alabama	-13384
▁horm	-13385
etta	-13386
▁sequence	-13387
▁hockey	-13388
▁thèm	-13389
▁Berg	-13390
▁amounts	-13391
AB	-13392
▁tent	-13393
▁eighth	-13394
beat	-13395
▁worship	-13396
ửng	-13397
▁Crit	-13398
▁rolling	-13399
sex	-13400
▁interpretation	-13401
▁alpha	-13402
▁Samuel	-13403
lahoma	-13404
▁angel	-13405
▁Nas	-13406
▁legit	-13407
▁ratings	-13408
▁thiền	-13409
▁button	-13410
▁crafted	-13411
EST	-13412
▁Trạm	-13413
▁bishop	-13414
▁monster	-13415
▁đặn	-13416
▁Austin	-13417
▁privile	-13418
bank	-13419
▁biblical	-13420
▁screw	-13421
py	-13422
▁crossing	-13423
▁targeted	-13424
▁Tehran	-13425
▁Bái	-13426
▁Hampshire	-13427
ecd	-13428
▁Rice	-13429
MP	-13430
▁CSĐT	-13431
▁cig	-13432
▁estimates	-13433
▁BL	-13434
▁anybody	-13435
▁trễ	-13436
▁brutal	-13437
▁Cant	-13438
▁Jamie	-13439
▁flex	-13440
▁Mom	-13441
pro	-13442
▁Ont	-13443
▁executed	-13444
▁bách	-13445
iop	-13446
▁mạ	-13447
▁stir	-13448
▁Former	-13449
▁rif	-13450
▁Yam	-13451
▁Pap	-13452
▁lê	-13453
▁ownership	-13454
▁Julia	-13455
▁Kath	-13456
▁deficit	-13457
▁preced	-13458
▁considerable	-13459
▁chửi	-13460
▁Travel	-13461
▁Carlos	-13462
je	-13463
▁ranks	-13464
▁Guy	-13465
▁Katie	-13466
eals	-13467
encer	-13468
izon	-13469
▁controversy	-13470
▁Gro	-13471
▁colour	-13472
▁participants	-13473
▁behalf	-13474
▁binding	-13475
▁cave	-13476
oret	-13477
▁commenting	-13478
▁styles	-13479
▁senator	-13480
▁Abu	-13481
▁shell	-13482
met	-13483
▁banned	-13484
rugged	-13485
▁compliment	-13486
▁diệu	-13487
▁salt	-13488
▁analyst	-13489
▁Bóng	-13490
▁praised	-13491
▁maker	-13492
▁mode	-13493
▁Seven	-13494
▁nôn	-13495
hand	-13496
▁smiling	-13497
▁grav	-13498
▁chocolate	-13499
▁dece	-13500
▁spy	-13501
▁stimulus	-13502
▁đính	-13503
▁Phoenix	-13504
ido	-13505
▁underground	-13506
▁lướt	-13507
▁installed	-13508
▁cheer	-13509
mi	-13510
▁strikes	-13511
▁polls	-13512
eton	-13513
▁vịt	-13514
▁đắng	-13515
▁Mob	-13516
▁LS	-13517
▁MB	-13518
▁aunt	-13519
▁construct	-13520
▁Thai	-13521
▁babies	-13522
▁imagined	-13523
▁Liệu	-13524
▁đạm	-13525
▁engross	-13526
▁abortion	-13527
▁Oklahoma	-13528
▁gains	-13529
etheless	-13530
▁winds	-13531
orks	-13532
▁ladies	-13533
▁radi	-13534
▁neighbors	-13535
▁contents	-13536
▁economics	-13537
▁bộc	-13538
▁keo	-13539
▁compare	-13540
▁USS	-13541
▁physically	-13542
▁Larry	-13543
▁Hiển	-13544
▁BT	-13545
iens	-13546
ullah	-13547
▁swept	-13548
▁Italia	-13549
▁pleasant	-13550
inely	-13551
esth	-13552
▁chiên	-13553
▁defence	-13554
▁Mail	-13555
dam	-13556
▁psychology	-13557
▁rệt	-13558
▁Shang	-13559
▁Broadway	-13560
▁exped	-13561
ealous	-13562
▁wolf	-13563
▁airline	-13564
▁reass	-13565
icut	-13566
▁emerging	-13567
▁basics	-13568
ụa	-13569
▁heritage	-13570
▁differently	-13571
oons	-13572
mail	-13573
▁tas	-13574
▁trĩ	-13575
▁Baby	-13576
▁addict	-13577
osl	-13578
emed	-13579
hu	-13580
▁beloved	-13581
▁sket	-13582
▁fet	-13583
hol	-13584
▁anxiety	-13585
▁fu	-13586
idal	-13587
▁dang	-13588
▁Metro	-13589
▁Phù	-13590
▁exposure	-13591
▁revealing	-13592
uits	-13593
▁gloss	-13594
arents	-13595
▁enormous	-13596
▁dynamic	-13597
▁Morris	-13598
▁addresses	-13599
▁investigators	-13600
undai	-13601
▁producers	-13602
▁whenever	-13603
▁melt	-13604
▁proport	-13605
▁stocks	-13606
oline	-13607
onald	-13608
ded	-13609
▁stunning	-13610
▁Eve	-13611
▁dropping	-13612
▁bottle	-13613
▁impr	-13614
▁Yang	-13615
▁universities	-13616
▁franchise	-13617
▁Melbourne	-13618
▁kép	-13619
▁Command	-13620
▁Hom	-13621
esy	-13622
▁communications	-13623
tery	-13624
▁spite	-13625
▁Tiger	-13626
▁Village	-13627
▁Exper	-13628
Hz	-13629
▁hug	-13630
▁Information	-13631
▁signing	-13632
▁consent	-13633
▁Gill	-13634
▁Johnny	-13635
▁cheek	-13636
▁visible	-13637
esa	-13638
▁Nhã	-13639
▁gest	-13640
▁grit	-13641
swire	-13642
▁footballer	-13643
▁scores	-13644
ocaly	-13645
▁Perry	-13646
▁Chang	-13647
▁Lucas	-13648
▁Đế	-13649
▁Blake	-13650
▁attending	-13651
▁LO	-13652
▁SEO	-13653
▁trapped	-13654
▁Cold	-13655
▁acceler	-13656
▁bent	-13657
▁admin	-13658
▁elabor	-13659
▁statistics	-13660
▁Nigeria	-13661
▁Neil	-13662
▁islands	-13663
▁Ngành	-13664
anne	-13665
▁rivals	-13666
▁beaten	-13667
▁acquis	-13668
▁nowhere	-13669
▁phiến	-13670
ductions	-13671
▁amateur	-13672
▁Century	-13673
▁Tứ	-13674
▁managers	-13675
▁Freder	-13676
▁shorter	-13677
ivan	-13678
▁eo	-13679
▁Tun	-13680
▁Vladimir	-13681
▁gut	-13682
▁sưng	-13683
ashes	-13684
▁MA	-13685
▁Marshall	-13686
▁Fran	-13687
▁âu	-13688
▁nomine	-13689
▁Ped	-13690
▁toll	-13691
rov	-13692
▁Mercedes	-13693
▁sorts	-13694
▁contracts	-13695
thm	-13696
▁Valent	-13697
rane	-13698
▁surrender	-13699
▁Intel	-13700
▁bóp	-13701
▁powered	-13702
har	-13703
▁Peru	-13704
▁Trúc	-13705
▁nang	-13706
▁hước	-13707
▁keen	-13708
bery	-13709
▁rải	-13710
▁nhỉ	-13711
▁subscription	-13712
▁burst	-13713
▁đống	-13714
▁handful	-13715
▁explicit	-13716
▁dẻo	-13717
▁Bird	-13718
▁satellite	-13719
▁paperback	-13720
jud	-13721
▁Ltd	-13722
▁interactions	-13723
▁occasion	-13724
▁surprisingly	-13725
▁Say	-13726
loaded	-13727
UBND	-13728
▁Catherine	-13729
▁inox	-13730
▁Nash	-13731
▁Kam	-13732
▁Chọn	-13733
do	-13734
▁Khả	-13735
icial	-13736
▁len	-13737
▁inspirational	-13738
imore	-13739
▁realizes	-13740
▁slave	-13741
▁Ukrain	-13742
▁spends	-13743
▁ranging	-13744
▁Serge	-13745
HT	-13746
▁vaccine	-13747
ailand	-13748
▁Upon	-13749
▁Mason	-13750
▁chiêm	-13751
▁Sẽ	-13752
ancell	-13753
▁dragged	-13754
▁đếm	-13755
▁approaches	-13756
▁poison	-13757
▁Creat	-13758
ommy	-13759
▁Nicholas	-13760
▁Ferg	-13761
uman	-13762
▁engines	-13763
▁institution	-13764
▁OS	-13765
bean	-13766
▁funeral	-13767
▁Bureau	-13768
▁Nằm	-13769
▁reserve	-13770
▁machines	-13771
▁sụp	-13772
▁Vòng	-13773
▁extend	-13774
▁Liberal	-13775
isan	-13776
▁VĐV	-13777
▁murders	-13778
▁anecd	-13779
▁exploration	-13780
▁Chase	-13781
▁accomplished	-13782
▁Haiti	-13783
▁worn	-13784
▁judgment	-13785
▁Throughout	-13786
▁Scient	-13787
▁DS	-13788
▁disorder	-13789
itual	-13790
▁Kiệt	-13791
▁accompany	-13792
ylan	-13793
▁gods	-13794
▁Imper	-13795
▁Due	-13796
▁expects	-13797
▁frey	-13798
ahn	-13799
▁obtain	-13800
▁striking	-13801
▁SE	-13802
▁blamed	-13803
aches	-13804
▁helicopter	-13805
▁xoa	-13806
▁View	-13807
▁lord	-13808
zes	-13809
▁professionals	-13810
ois	-13811
▁Patri	-13812
▁sacrifice	-13813
▁mas	-13814
▁sấy	-13815
▁HEA	-13816
▁manif	-13817
▁buck	-13818
▁Amb	-13819
▁Prim	-13820
inals	-13821
▁youngest	-13822
▁auction	-13823
▁innings	-13824
▁bai	-13825
▁Mở	-13826
▁imprison	-13827
▁portrait	-13828
▁soil	-13829
▁Make	-13830
▁pump	-13831
▁quoted	-13832
▁Yemen	-13833
ods	-13834
▁lyrics	-13835
▁shore	-13836
▁Cit	-13837
▁elite	-13838
▁Shakes	-13839
▁Totten	-13840
▁Holmes	-13841
▁centered	-13842
oded	-13843
▁TB	-13844
▁MI	-13845
▁slipped	-13846
oked	-13847
▁dimensional	-13848
▁Niên	-13849
aku	-13850
▁Hàm	-13851
▁distant	-13852
▁jeans	-13853
▁honesty	-13854
▁uncomfort	-13855
▁Collins	-13856
▁Lucy	-13857
▁breakfast	-13858
▁infrastructure	-13859
▁bars	-13860
▁GB	-13861
▁permission	-13862
▁knees	-13863
▁Sure	-13864
▁catal	-13865
▁Hem	-13866
▁influential	-13867
▁ráo	-13868
▁quote	-13869
▁recommendations	-13870
▁directors	-13871
xture	-13872
▁compensation	-13873
▁fighters	-13874
▁proven	-13875
▁thỉnh	-13876
LD	-13877
▁thắn	-13878
▁nhậu	-13879
▁balanced	-13880
cus	-13881
▁logged	-13882
▁gene	-13883
▁skip	-13884
▁Pack	-13885
▁Pearl	-13886
▁gradually	-13887
▁Diam	-13888
writer	-13889
▁Page	-13890
▁Ontario	-13891
amo	-13892
▁universal	-13893
▁Oliver	-13894
▁Ngược	-13895
▁expenses	-13896
Nh	-13897
▁Blu	-13898
▁SG	-13899
▁Thailand	-13900
▁Màn	-13901
▁Core	-13902
▁nhặt	-13903
▁Rud	-13904
▁tạ	-13905
▁xôi	-13906
apolis	-13907
▁Maz	-13908
chool	-13909
▁supports	-13910
▁testimony	-13911
▁grandchild	-13912
▁flawed	-13913
▁discusses	-13914
▁unbelievable	-13915
▁Within	-13916
▁Ted	-13917
isy	-13918
▁tui	-13919
▁knocked	-13920
▁Studies	-13921
▁đoan	-13922
▁Pur	-13923
▁Near	-13924
orous	-13925
▁supplement	-13926
▁departure	-13927
▁possession	-13928
fers	-13929
▁seg	-13930
▁colored	-13931
rip	-13932
eway	-13933
▁TD	-13934
▁mining	-13935
▁Connecticut	-13936
▁smoking	-13937
▁Ker	-13938
▁execution	-13939
ilst	-13940
▁Bayern	-13941
▁nhường	-13942
▁Poly	-13943
▁multimedia	-13944
▁alex	-13945
▁eleg	-13946
▁Angela	-13947
▁Arn	-13948
▁Billboard	-13949
▁valley	-13950
▁gathering	-13951
▁bone	-13952
▁ván	-13953
▁Junior	-13954
▁Emperor	-13955
▁ears	-13956
▁fighter	-13957
▁Pittsburgh	-13958
▁Shah	-13959
▁RAM	-13960
▁tồi	-13961
ươm	-13962
éc	-13963
▁Kông	-13964
▁Nay	-13965
▁rocket	-13966
▁Khải	-13967
▁Must	-13968
enders	-13969
▁submission	-13970
▁phones	-13971
▁Pin	-13972
▁consciousness	-13973
orer	-13974
▁witnesses	-13975
▁đinh	-13976
▁Chan	-13977
▁perf	-13978
▁rebels	-13979
▁currency	-13980
mund	-13981
▁Munich	-13982
▁Cer	-13983
▁TC	-13984
ronics	-13985
▁meaningful	-13986
▁Đống	-13987
▁bonds	-13988
▁meals	-13989
▁ốp	-13990
▁Costa	-13991
▁Histor	-13992
▁upcoming	-13993
▁wider	-13994
▁frustration	-13995
▁naturally	-13996
▁cồn	-13997
▁unnecessary	-13998
▁EX	-13999
▁passionate	-14000
▁iOS	-14001
▁Eag	-14002
▁khoang	-14003
▁Girls	-14004
▁Palestine	-14005
▁bones	-14006
▁Environment	-14007
▁routine	-14008
▁Dak	-14009
▁Tottenham	-14010
▁HAGL	-14011
▁genetic	-14012
umed	-14013
▁Crime	-14014
▁prosecutors	-14015
▁Giai	-14016
▁Hắn	-14017
▁Edin	-14018
▁surviving	-14019
▁monthly	-14020
▁Historic	-14021
▁bỉ	-14022
▁Libya	-14023
▁laughter	-14024
▁Hud	-14025
▁thìa	-14026
born	-14027
▁nầy	-14028
▁underlying	-14029
▁Grey	-14030
▁Pic	-14031
▁tactics	-14032
▁Commer	-14033
▁synd	-14034
▁jaw	-14035
isons	-14036
▁Limited	-14037
▁PM	-14038
▁Zen	-14039
KH	-14040
▁adorable	-14041
▁ND	-14042
▁reportedly	-14043
▁cricket	-14044
▁hospitals	-14045
▁ah	-14046
▁Peters	-14047
▁Magazine	-14048
▁ranh	-14049
▁chol	-14050
▁nurse	-14051
▁Jere	-14052
▁stereoty	-14053
▁kẹo	-14054
▁Hob	-14055
▁improving	-14056
▁objective	-14057
▁Communist	-14058
▁sét	-14059
▁Norway	-14060
umer	-14061
▁Tob	-14062
▁Nag	-14063
▁Given	-14064
▁appealing	-14065
▁updates	-14066
▁anch	-14067
▁BA	-14068
▁ngứa	-14069
▁strip	-14070
▁Script	-14071
▁reson	-14072
▁proposals	-14073
▁earthquake	-14074
gor	-14075
▁Bernard	-14076
▁aired	-14077
▁Jessica	-14078
▁Austria	-14079
▁chợt	-14080
▁cấy	-14081
peare	-14082
▁lawsuit	-14083
▁sized	-14084
ycl	-14085
▁Snow	-14086
▁Federation	-14087
▁Tờ	-14088
▁biz	-14089
▁dub	-14090
▁freyja	-14091
▁aer	-14092
▁kicked	-14093
▁stal	-14094
etary	-14095
▁nutrit	-14096
edral	-14097
▁Equ	-14098
▁Reagan	-14099
▁BOT	-14100
▁villain	-14101
▁vert	-14102
▁bombing	-14103
bes	-14104
▁guides	-14105
▁encountered	-14106
itudes	-14107
▁conce	-14108
aned	-14109
▁Nathan	-14110
▁funded	-14111
adi	-14112
▁chìa	-14113
▁Nhưỡng	-14114
▁nhọn	-14115
▁mainstream	-14116
ultane	-14117
▁contrad	-14118
lu	-14119
yard	-14120
▁Fried	-14121
▁eggs	-14122
▁PA	-14123
▁clues	-14124
▁Tang	-14125
▁headline	-14126
▁Nàng	-14127
▁conclusions	-14128
▁Loài	-14129
▁steamy	-14130
▁Celt	-14131
▁Soon	-14132
▁leather	-14133
▁Indians	-14134
▁unve	-14135
▁frustrating	-14136
▁Quế	-14137
▁Camera	-14138
▁gục	-14139
atus	-14140
▁commissioned	-14141
▁SM	-14142
▁rely	-14143
▁discussing	-14144
rik	-14145
▁enroll	-14146
▁Uyên	-14147
▁assembly	-14148
▁predicted	-14149
etics	-14150
▁exclusive	-14151
ho	-14152
inction	-14153
▁Storm	-14154
▁neo	-14155
▁stating	-14156
▁jet	-14157
▁Nobel	-14158
▁Hend	-14159
▁Constitution	-14160
▁derived	-14161
▁joke	-14162
▁Armen	-14163
▁Ze	-14164
▁rốt	-14165
▁Claud	-14166
▁kilomet	-14167
▁Tới	-14168
▁rocks	-14169
emption	-14170
▁gently	-14171
▁cuộn	-14172
OD	-14173
▁ugly	-14174
▁bra	-14175
▁logical	-14176
▁lasted	-14177
▁crude	-14178
▁Register	-14179
▁Route	-14180
▁guarantee	-14181
▁Maggie	-14182
▁minded	-14183
▁halfway	-14184
▁tiss	-14185
▁tóm	-14186
▁Benj	-14187
rix	-14188
ficial	-14189
▁chase	-14190
▁convinc	-14191
▁situated	-14192
▁assessment	-14193
▁Led	-14194
zi	-14195
▁Conservative	-14196
▁Market	-14197
▁essay	-14198
▁musicians	-14199
▁tag	-14200
▁continu	-14201
▁lou	-14202
venues	-14203
▁IB	-14204
▁Barr	-14205
▁Lock	-14206
ailed	-14207
ubble	-14208
▁Kenya	-14209
▁duties	-14210
▁Jerry	-14211
▁handsome	-14212
▁Sound	-14213
▁Mường	-14214
▁conventional	-14215
▁storytelling	-14216
▁Reid	-14217
▁pointing	-14218
▁les	-14219
▁ere	-14220
▁Khác	-14221
▁northwest	-14222
▁Dom	-14223
▁Mack	-14224
▁khoẻ	-14225
illery	-14226
dale	-14227
▁plung	-14228
▁đắm	-14229
▁Blair	-14230
▁shield	-14231
▁Oil	-14232
▁shops	-14233
achelor	-14234
▁Psych	-14235
▁preparation	-14236
▁Ing	-14237
▁Others	-14238
▁pride	-14239
▁Trav	-14240
▁Need	-14241
▁patrol	-14242
▁competing	-14243
▁túng	-14244
▁vã	-14245
▁Khoản	-14246
ouses	-14247
▁coat	-14248
▁Thor	-14249
▁residence	-14250
▁Lost	-14251
▁exceptional	-14252
abulary	-14253
▁Trib	-14254
▁traditions	-14255
▁aggressive	-14256
▁lột	-14257
eley	-14258
▁cúp	-14259
▁checking	-14260
▁explosion	-14261
▁appointment	-14262
▁elderly	-14263
▁Nhằm	-14264
▁Baker	-14265
▁quỷ	-14266
▁youre	-14267
▁Hyundai	-14268
▁unclear	-14269
▁Claire	-14270
▁Shakespeare	-14271
▁intr	-14272
▁Local	-14273
▁Ruth	-14274
▁occasions	-14275
▁Fut	-14276
▁Baltimore	-14277
nan	-14278
oples	-14279
▁amazed	-14280
▁MPs	-14281
bu	-14282
▁marine	-14283
▁rễ	-14284
▁resemb	-14285
▁jacket	-14286
▁Affairs	-14287
arest	-14288
avery	-14289
▁Clar	-14290
▁thoa	-14291
▁Advent	-14292
▁Lion	-14293
▁Rather	-14294
▁OP	-14295
▁republic	-14296
▁waves	-14297
▁operates	-14298
▁cats	-14299
▁median	-14300
▁thru	-14301
▁VND	-14302
▁Kính	-14303
▁Fergus	-14304
▁brick	-14305
fight	-14306
▁mere	-14307
▁notion	-14308
▁amusing	-14309
▁theology	-14310
▁clinical	-14311
▁dặn	-14312
▁cõi	-14313
cked	-14314
▁clich	-14315
▁bồ	-14316
▁hen	-14317
▁celebrity	-14318
▁Fact	-14319
▁CC	-14320
▁nhiếp	-14321
▁QH	-14322
▁bankruptcy	-14323
▁frames	-14324
▁khuất	-14325
▁Tit	-14326
▁seized	-14327
▁Senior	-14328
▁Prior	-14329
tenance	-14330
rect	-14331
▁Quest	-14332
ucker	-14333
▁Finance	-14334
thy	-14335
▁intric	-14336
▁lận	-14337
▁gate	-14338
olt	-14339
▁Tuyến	-14340
▁payment	-14341
▁Freed	-14342
▁medieval	-14343
▁Wonderful	-14344
▁components	-14345
▁Denver	-14346
▁reflection	-14347
▁synth	-14348
▁Attorney	-14349
front	-14350
ignant	-14351
▁Mic	-14352
ếng	-14353
▁Karen	-14354
▁medi	-14355
▁Cúc	-14356
▁Gray	-14357
▁autobi	-14358
ockey	-14359
▁niece	-14360
▁Franklin	-14361
▁Cựu	-14362
▁imagin	-14363
▁ghen	-14364
▁Villa	-14365
▁unsu	-14366
tw	-14367
▁output	-14368
▁vig	-14369
▁Tám	-14370
eries	-14371
▁Nep	-14372
▁dỗ	-14373
▁Mấy	-14374
▁Control	-14375
▁Blog	-14376
osc	-14377
▁Event	-14378
▁gear	-14379
▁chốn	-14380
IE	-14381
▁Kids	-14382
▁indicate	-14383
▁notably	-14384
▁distributed	-14385
▁inaug	-14386
▁giếng	-14387
▁addiction	-14388
▁tackle	-14389
▁chuck	-14390
▁Prom	-14391
▁hạch	-14392
▁defending	-14393
▁Sara	-14394
iblings	-14395
▁Tum	-14396
▁repetitive	-14397
▁lơ	-14398
ceptions	-14399
▁Cad	-14400
UL	-14401
▁reducing	-14402
▁Saig	-14403
▁Bangl	-14404
▁speaker	-14405
▁nghiệt	-14406
▁Nation	-14407
▁athletes	-14408
rated	-14409
▁reduction	-14410
▁woods	-14411
▁flower	-14412
olo	-14413
▁requested	-14414
▁perpet	-14415
▁láng	-14416
▁controls	-14417
▁Ess	-14418
▁Bát	-14419
▁Hunt	-14420
▁Utah	-14421
▁promising	-14422
▁irre	-14423
▁counts	-14424
▁sườn	-14425
▁Khởi	-14426
▁elig	-14427
▁ranking	-14428
▁Đặt	-14429
ensis	-14430
▁Place	-14431
▁CĐV	-14432
▁Dj	-14433
uma	-14434
cott	-14435
▁taxp	-14436
▁Fish	-14437
ocaust	-14438
▁Mans	-14439
▁bú	-14440
▁muôn	-14441
CAA	-14442
▁Beng	-14443
▁boxes	-14444
▁shallow	-14445
▁reserved	-14446
elsh	-14447
enson	-14448
▁spaces	-14449
▁acceptance	-14450
▁NBA	-14451
▁điêu	-14452
▁Authority	-14453
▁Crist	-14454
▁holy	-14455
▁touches	-14456
▁campaigns	-14457
▁hungry	-14458
▁Lanc	-14459
▁bullet	-14460
▁shifted	-14461
▁principle	-14462
▁Testament	-14463
▁Soul	-14464
lining	-14465
▁Earl	-14466
▁pharm	-14467
alg	-14468
▁pip	-14469
inate	-14470
▁zombie	-14471
▁đan	-14472
▁mồi	-14473
▁belt	-14474
▁nguyệt	-14475
▁Clear	-14476
▁shy	-14477
▁GOP	-14478
▁legacy	-14479
▁yoga	-14480
▁VKS	-14481
▁Ngũ	-14482
eling	-14483
▁resolve	-14484
inces	-14485
▁conflicts	-14486
▁Brazilian	-14487
▁nai	-14488
▁Price	-14489
▁Brand	-14490
▁ritual	-14491
▁reread	-14492
▁budd	-14493
ounters	-14494
▁Horn	-14495
▁Faith	-14496
ocol	-14497
▁Buck	-14498
▁dancing	-14499
▁timely	-14500
▁resolved	-14501
▁Giáng	-14502
▁parad	-14503
▁Chấp	-14504
▁siblings	-14505
▁BMW	-14506
▁appearing	-14507
kov	-14508
▁Diamond	-14509
▁bags	-14510
osexual	-14511
▁Heb	-14512
▁Liga	-14513
▁Bour	-14514
▁intimate	-14515
▁Sửa	-14516
▁anxious	-14517
▁nhị	-14518
▁khánh	-14519
▁XI	-14520
▁HĐXX	-14521
▁Rodriguez	-14522
▁Rịa	-14523
▁Memorial	-14524
▁overh	-14525
olec	-14526
rin	-14527
▁Additionally	-14528
▁incorporated	-14529
▁Norwe	-14530
▁caution	-14531
▁convey	-14532
▁presidency	-14533
▁xổ	-14534
▁longest	-14535
alling	-14536
▁simultane	-14537
▁kit	-14538
▁Icel	-14539
▁bell	-14540
▁Wel	-14541
▁BP	-14542
acent	-14543
▁khử	-14544
▁Julie	-14545
▁đục	-14546
▁tables	-14547
▁reaches	-14548
▁fed	-14549
▁Chev	-14550
▁stopping	-14551
▁argues	-14552
▁naked	-14553
▁quirky	-14554
▁Area	-14555
opes	-14556
▁đè	-14557
▁musician	-14558
▁pregnancy	-14559
ublin	-14560
▁Treat	-14561
▁Caribbean	-14562
▁metres	-14563
aman	-14564
arson	-14565
approp	-14566
▁celebrated	-14567
▁grim	-14568
oves	-14569
umbling	-14570
▁Enjoyed	-14571
▁collapsed	-14572
▁uốn	-14573
▁drives	-14574
▁cọ	-14575
▁Lex	-14576
▁scope	-14577
▁skim	-14578
▁Nevada	-14579
▁Hannah	-14580
▁spa	-14581
kind	-14582
▁Tần	-14583
▁tropical	-14584
▁discour	-14585
▁Maur	-14586
▁prompted	-14587
▁bơ	-14588
▁Iceland	-14589
▁vòi	-14590
ulum	-14591
▁hopeful	-14592
▁insert	-14593
▁observations	-14594
▁Hamas	-14595
▁Legisl	-14596
▁adequ	-14597
avia	-14598
▁occupation	-14599
lend	-14600
▁đuối	-14601
▁exclud	-14602
▁drunk	-14603
▁Benjamin	-14604
▁sheet	-14605
DF	-14606
▁buyers	-14607
▁Lily	-14608
▁Zimb	-14609
TP	-14610
iy	-14611
▁assemb	-14612
▁comics	-14613
▁sophistic	-14614
▁grip	-14615
▁bloody	-14616
▁somebody	-14617
▁SJC	-14618
▁sake	-14619
losed	-14620
▁cabinet	-14621
▁excuse	-14622
▁triết	-14623
▁Thức	-14624
▁transportation	-14625
▁LĐLĐ	-14626
▁suitable	-14627
▁photographer	-14628
▁isolated	-14629
▁Harper	-14630
▁Đá	-14631
castle	-14632
▁Victorian	-14633
▁quầy	-14634
▁Lấy	-14635
▁restored	-14636
▁CV	-14637
▁Alt	-14638
▁Logan	-14639
▁pod	-14640
▁recalled	-14641
▁likable	-14642
▁density	-14643
▁tender	-14644
▁Chuyển	-14645
▁tunnel	-14646
▁Ib	-14647
▁Fif	-14648
▁swimming	-14649
▁wasnt	-14650
▁SA	-14651
▁slid	-14652
▁mentions	-14653
▁batteries	-14654
▁precious	-14655
▁chaos	-14656
▁Indeed	-14657
▁bowl	-14658
▁Stein	-14659
▁remarks	-14660
▁Boys	-14661
▁Croatia	-14662
▁Walt	-14663
▁flee	-14664
DL	-14665
▁Đồn	-14666
▁quarters	-14667
opy	-14668
▁missions	-14669
▁monit	-14670
▁sucked	-14671
▁Edinburgh	-14672
▁Lloyd	-14673
▁Lắk	-14674
mph	-14675
▁insult	-14676
sect	-14677
▁}	-14678
combank	-14679
ribly	-14680
SE	-14681
▁{	-14682
▁protecting	-14683
▁examination	-14684
▁accord	-14685
▁Cab	-14686
bey	-14687
▁toil	-14688
▁Copyright	-14689
▁hẻm	-14690
▁experiencing	-14691
▁Phút	-14692
▁deemed	-14693
▁generated	-14694
▁wishes	-14695
nik	-14696
▁cared	-14697
▁Fisher	-14698
ancellor	-14699
▁amongst	-14700
▁Haz	-14701
▁cosm	-14702
▁colonial	-14703
▁Oanh	-14704
▁prince	-14705
▁exchang	-14706
▁xào	-14707
▁chef	-14708
▁Đọc	-14709
▁abst	-14710
▁doctr	-14711
▁Clay	-14712
▁Jung	-14713
▁bronze	-14714
▁Besides	-14715
▁recount	-14716
▁AA	-14717
▁citizen	-14718
▁conj	-14719
▁Thí	-14720
▁Tag	-14721
▁cameras	-14722
▁Officer	-14723
▁NP	-14724
▁Vệ	-14725
▁virtual	-14726
▁dual	-14727
▁Đang	-14728
▁Diana	-14729
ieu	-14730
▁Policy	-14731
▁FDI	-14732
▁Boeing	-14733
ilia	-14734
▁politically	-14735
wall	-14736
▁neglect	-14737
▁woven	-14738
▁jealous	-14739
▁Vịnh	-14740
▁jumping	-14741
▁Bobby	-14742
▁xắn	-14743
▁Germans	-14744
▁vớt	-14745
▁Natural	-14746
▁khao	-14747
eastern	-14748
▁chicken	-14749
▁inclus	-14750
keeper	-14751
issance	-14752
▁Rest	-14753
▁orph	-14754
▁MTTQ	-14755
▁displayed	-14756
▁elementary	-14757
oly	-14758
▁activists	-14759
tains	-14760
▁sinc	-14761
▁Album	-14762
▁fest	-14763
top	-14764
▁Steel	-14765
iềng	-14766
▁earliest	-14767
▁uncomfortable	-14768
▁khiêu	-14769
▁porn	-14770
QL	-14771
▁Wi	-14772
▁residential	-14773
HD	-14774
▁closest	-14775
▁restrictions	-14776
▁sink	-14777
▁gem	-14778
▁menu	-14779
▁Confeder	-14780
▁Nico	-14781
▁HO	-14782
mingham	-14783
▁forgiveness	-14784
▁Fat	-14785
athon	-14786
▁Action	-14787
▁questioning	-14788
intend	-14789
▁scratch	-14790
▁Emer	-14791
▁soo	-14792
▁Myst	-14793
▁entertained	-14794
▁philosophical	-14795
▁blown	-14796
▁relatable	-14797
▁Pow	-14798
▁Karl	-14799
▁Maine	-14800
▁demanding	-14801
▁Phys	-14802
▁deny	-14803
▁shaking	-14804
crib	-14805
▁tribute	-14806
▁Made	-14807
▁mượt	-14808
▁technologies	-14809
▁Chào	-14810
uda	-14811
▁inhabitants	-14812
▁diplomatic	-14813
▁Marketing	-14814
▁Farm	-14815
▁socc	-14816
▁NV	-14817
TB	-14818
▁slip	-14819
▁khiếp	-14820
▁lánh	-14821
sk	-14822
▁princess	-14823
▁naval	-14824
▁swing	-14825
▁anticipated	-14826
▁Welsh	-14827
▁Turner	-14828
▁ted	-14829
omot	-14830
▁rounds	-14831
▁fifty	-14832
▁recommendation	-14833
▁loyalty	-14834
seud	-14835
gate	-14836
▁soccer	-14837
▁novella	-14838
▁framework	-14839
▁rugby	-14840
▁seeks	-14841
cha	-14842
▁stroke	-14843
ixel	-14844
▁hạm	-14845
▁Forces	-14846
ấng	-14847
▁Move	-14848
abwe	-14849
▁Norman	-14850
uscript	-14851
▁thrilling	-14852
▁Cob	-14853
▁Í	-14854
▁Hir	-14855
eta	-14856
▁renov	-14857
▁viền	-14858
▁crown	-14859
▁handy	-14860
world	-14861
acking	-14862
▁ngỡ	-14863
ucking	-14864
▁develops	-14865
igious	-14866
▁shower	-14867
▁ward	-14868
▁worksh	-14869
▁registering	-14870
▁Aren	-14871
▁boats	-14872
▁dishes	-14873
▁believing	-14874
ocated	-14875
▁desperately	-14876
▁nhát	-14877
sa	-14878
grad	-14879
▁load	-14880
▁Danny	-14881
▁NCAA	-14882
▁Serbia	-14883
▁Chùa	-14884
▁Diễm	-14885
▁CTCP	-14886
▁gõ	-14887
▁Temple	-14888
▁suggesting	-14889
▁closure	-14890
eon	-14891
▁Gabriel	-14892
▁Ref	-14893
▁bóc	-14894
▁bạt	-14895
▁Egyptian	-14896
▁nons	-14897
▁trán	-14898
▁Tax	-14899
▁Murphy	-14900
PG	-14901
▁investments	-14902
▁Món	-14903
▁arrives	-14904
ictionary	-14905
▁mía	-14906
▁comple	-14907
▁embrace	-14908
▁Bức	-14909
▁Norwegian	-14910
▁Hiểu	-14911
▁Singh	-14912
erness	-14913
▁forb	-14914
▁cliffh	-14915
▁IR	-14916
▁đán	-14917
▁Fitz	-14918
▁categories	-14919
▁NLĐ	-14920
▁Vẫn	-14921
▁branches	-14922
▁encounters	-14923
▁Zimbabwe	-14924
▁steep	-14925
▁routes	-14926
▁Xi	-14927
▁Television	-14928
▁scholarship	-14929
▁bureau	-14930
▁expense	-14931
▁Belg	-14932
▁fame	-14933
▁Cro	-14934
▁fifteen	-14935
▁Baron	-14936
▁bombs	-14937
▁Kil	-14938
▁Bánh	-14939
bps	-14940
▁Chron	-14941
▁tước	-14942
▁ads	-14943
oning	-14944
▁initiative	-14945
aceae	-14946
▁ngất	-14947
▁POV	-14948
icism	-14949
▁priority	-14950
ớc	-14951
▁Meth	-14952
▁Ent	-14953
▁loaded	-14954
▁runner	-14955
▁sponsored	-14956
▁perspectives	-14957
eria	-14958
▁angle	-14959
▁Kos	-14960
▁Luis	-14961
▁Dod	-14962
▁Asp	-14963
▁parliamentary	-14964
▁alliance	-14965
aba	-14966
▁cháo	-14967
▁unre	-14968
▁xì	-14969
uese	-14970
▁Contin	-14971
▁greet	-14972
▁rèm	-14973
▁viếng	-14974
▁sup	-14975
▁Sull	-14976
▁Beh	-14977
▁Orange	-14978
▁kissed	-14979
▁sighed	-14980
▁grat	-14981
▁pants	-14982
ovich	-14983
▁nhục	-14984
afe	-14985
▁uncover	-14986
sis	-14987
▁Handbook	-14988
▁nàn	-14989
▁protesters	-14990
▁inquiry	-14991
illo	-14992
bastian	-14993
▁shocking	-14994
▁slide	-14995
▁champions	-14996
▁recipients	-14997
▁Ivan	-14998
▁Giống	-14999
▁cake	-15000
▁documented	-15001
▁celebrate	-15002
OC	-15003
▁planes	-15004
▁Coc	-15005
▁Mông	-15006
▁râu	-15007
▁Idol	-15008
▁Traff	-15009
▁modest	-15010
▁Amazing	-15011
▁Come	-15012
ener	-15013
▁brush	-15014
▁forming	-15015
▁Pil	-15016
▁Kích	-15017
▁feared	-15018
New	-15019
▁chamber	-15020
▁HNX	-15021
▁borders	-15022
▁Cận	-15023
▁equipped	-15024
người	-15025
▁Kirk	-15026
▁habits	-15027
▁avid	-15028
▁slavery	-15029
▁sharply	-15030
▁associate	-15031
▁đùi	-15032
▁Comb	-15033
kel	-15034
▁motorc	-15035
▁Stu	-15036
▁exit	-15037
▁inapprop	-15038
▁fatal	-15039
▁ignor	-15040
▁blew	-15041
▁rever	-15042
▁Tạ	-15043
▁peaceful	-15044
▁Birmingham	-15045
▁collections	-15046
▁introduces	-15047
▁yr	-15048
▁khiêm	-15049
▁aboard	-15050
▁propag	-15051
▁sits	-15052
▁tourist	-15053
▁bizarre	-15054
▁PTNT	-15055
▁maintenance	-15056
▁Regiment	-15057
▁rounded	-15058
▁practically	-15059
enberg	-15060
ovak	-15061
▁Laz	-15062
ointed	-15063
▁reconc	-15064
▁Masters	-15065
▁formally	-15066
▁barg	-15067
▁Fro	-15068
▁archae	-15069
▁consisted	-15070
erie	-15071
▁grave	-15072
PN	-15073
▁patch	-15074
▁AIDS	-15075
EF	-15076
▁Ferguson	-15077
▁fortune	-15078
▁fond	-15079
▁Tốt	-15080
▁organic	-15081
▁Tuyển	-15082
▁nọ	-15083
▁thon	-15084
▁datab	-15085
▁builds	-15086
▁representatives	-15087
▁boom	-15088
▁Marvel	-15089
▁luc	-15090
▁Rangers	-15091
▁northeast	-15092
▁Current	-15093
▁Arkansas	-15094
▁classified	-15095
lee	-15096
▁essence	-15097
▁Pad	-15098
▁stairs	-15099
▁reflects	-15100
▁tempor	-15101
▁Phillips	-15102
▁Trấn	-15103
▁Hug	-15104
▁Khanh	-15105
▁Mậu	-15106
▁outlook	-15107
▁hosts	-15108
▁embr	-15109
▁sessions	-15110
▁EVN	-15111
▁editors	-15112
▁weaves	-15113
▁nhộn	-15114
▁appreciation	-15115
▁Less	-15116
itol	-15117
▁báu	-15118
▁Fi	-15119
▁counterp	-15120
▁Rooney	-15121
▁Woman	-15122
▁Wow	-15123
Qu	-15124
esterol	-15125
▁composer	-15126
inis	-15127
▁citing	-15128
▁lending	-15129
▁ngẫu	-15130
iors	-15131
▁stays	-15132
▁files	-15133
▁Works	-15134
Ng	-15135
rina	-15136
▁diesel	-15137
▁bases	-15138
▁reflected	-15139
▁bio	-15140
▁charm	-15141
▁railroad	-15142
archy	-15143
▁spoilers	-15144
ecca	-15145
▁glance	-15146
▁incidents	-15147
owski	-15148
▁notified	-15149
▁Romney	-15150
▁Protest	-15151
▁Bắt	-15152
▁chronic	-15153
▁clarity	-15154
▁shrugged	-15155
▁fights	-15156
▁Xét	-15157
▁explores	-15158
math	-15159
▁painter	-15160
▁endless	-15161
ynasty	-15162
EG	-15163
▁Portuguese	-15164
elfare	-15165
▁Watson	-15166
▁ninth	-15167
istent	-15168
▁throws	-15169
▁layer	-15170
▁summar	-15171
▁dạn	-15172
iri	-15173
▁Sweet	-15174
▁diagnosed	-15175
▁hotels	-15176
ielder	-15177
▁cancel	-15178
▁crashed	-15179
▁Sciences	-15180
▁hưng	-15181
▁Giêsu	-15182
▁ramp	-15183
ophy	-15184
state	-15185
▁diseases	-15186
▁khía	-15187
▁gra	-15188
▁deserved	-15189
pm	-15190
▁Kang	-15191
▁Catal	-15192
▁collaboration	-15193
▁Isa	-15194
▁submit	-15195
eels	-15196
▁dép	-15197
▁concentration	-15198
▁Jefferson	-15199
▁scan	-15200
car	-15201
▁Link	-15202
▁Puerto	-15203
iosity	-15204
▁honey	-15205
▁Vinc	-15206
strong	-15207
▁Theater	-15208
▁expanding	-15209
▁holidays	-15210
▁dread	-15211
▁Using	-15212
▁tourists	-15213
izer	-15214
▁sir	-15215
oqu	-15216
▁Đỏ	-15217
ERY	-15218
▁marvel	-15219
▁procedures	-15220
▁communicate	-15221
▁spectacular	-15222
▁regulation	-15223
▁Saigon	-15224
▁punishment	-15225
▁bưu	-15226
▁exploring	-15227
▁Quinn	-15228
▁possibilities	-15229
▁Mult	-15230
▁Ưu	-15231
▁opponent	-15232
▁evolved	-15233
▁sadness	-15234
▁gạt	-15235
▁origins	-15236
▁Advert	-15237
▁successor	-15238
▁KT	-15239
▁Edition	-15240
▁orange	-15241
▁Vùng	-15242
▁yến	-15243
lay	-15244
etti	-15245
▁reception	-15246
▁stun	-15247
▁moderate	-15248
▁Bangladesh	-15249
▁speculation	-15250
▁Kan	-15251
▁eld	-15252
aired	-15253
▁Leo	-15254
▁gieo	-15255
▁characteristics	-15256
▁Drew	-15257
▁provincial	-15258
▁developments	-15259
▁followers	-15260
rings	-15261
chy	-15262
▁Nghiệp	-15263
▁alternate	-15264
borough	-15265
▁restore	-15266
▁segment	-15267
▁XH	-15268
▁reluctant	-15269
▁instinct	-15270
▁manuscript	-15271
▁Bed	-15272
▁wrap	-15273
▁Wang	-15274
▁vịnh	-15275
▁Mush	-15276
▁Newcastle	-15277
▁hyper	-15278
▁kiêng	-15279
▁Room	-15280
▁config	-15281
▁tị	-15282
▁ngây	-15283
▁showbiz	-15284
▁enhance	-15285
▁puzzles	-15286
▁Todd	-15287
▁instruments	-15288
▁Intellig	-15289
▁font	-15290
▁dominant	-15291
▁prospect	-15292
▁creature	-15293
RI	-15294
leton	-15295
▁Gem	-15296
▁sacrific	-15297
shine	-15298
▁Code	-15299
▁reverse	-15300
▁Giữa	-15301
▁psychiat	-15302
▁contempl	-15303
▁Bapt	-15304
▁spare	-15305
▁Patterson	-15306
▁posts	-15307
fly	-15308
regation	-15309
▁uncon	-15310
▁đc	-15311
▁intensity	-15312
▁Aaron	-15313
▁ủi	-15314
olid	-15315
▁Vik	-15316
gon	-15317
▁Chrysler	-15318
▁Guardian	-15319
▁xuôi	-15320
▁Analy	-15321
▁sew	-15322
▁Luân	-15323
umble	-15324
mat	-15325
▁Khí	-15326
▁agricultural	-15327
▁param	-15328
▁pastor	-15329
▁grandchildren	-15330
▁Bald	-15331
▁bite	-15332
feld	-15333
▁Ice	-15334
▁printing	-15335
▁qualities	-15336
▁uk	-15337
▁Glas	-15338
▁Madison	-15339
olk	-15340
▁industries	-15341
▁Pick	-15342
hal	-15343
▁clue	-15344
▁Nguy	-15345
▁bend	-15346
▁neutral	-15347
▁Độc	-15348
▁Hab	-15349
▁contribute	-15350
▁organisation	-15351
▁twins	-15352
▁significance	-15353
▁thrust	-15354
▁demol	-15355
orship	-15356
▁tremendous	-15357
▁Tướng	-15358
▁flour	-15359
▁mic	-15360
▁lọ	-15361
▁Tags	-15362
▁traded	-15363
▁behaviour	-15364
▁wand	-15365
eded	-15366
▁coastal	-15367
asa	-15368
vo	-15369
▁vet	-15370
▁dirt	-15371
▁tạng	-15372
▁useless	-15373
▁dào	-15374
▁creativity	-15375
Newswire	-15376
▁Hudson	-15377
▁cass	-15378
▁complained	-15379
oween	-15380
anor	-15381
aws	-15382
▁cath	-15383
▁shelter	-15384
▁bã	-15385
▁wip	-15386
▁XV	-15387
▁Alliance	-15388
▁examin	-15389
▁Hispan	-15390
▁seam	-15391
▁Khương	-15392
▁panic	-15393
endment	-15394
▁submitting	-15395
borne	-15396
▁alter	-15397
olving	-15398
▁Based	-15399
▁vocabulary	-15400
▁sher	-15401
vere	-15402
▁Jesse	-15403
▁heartbreaking	-15404
acies	-15405
▁realm	-15406
bach	-15407
▁external	-15408
▁lobby	-15409
hile	-15410
▁Medicine	-15411
▁overnight	-15412
▁wrench	-15413
úm	-15414
▁Ald	-15415
alin	-15416
▁rộ	-15417
▁Dell	-15418
▁furniture	-15419
▁Brother	-15420
▁dumb	-15421
▁Written	-15422
▁kidnapped	-15423
gow	-15424
▁entries	-15425
▁relating	-15426
▁demonstrated	-15427
ũa	-15428
▁chọc	-15429
▁Phóng	-15430
▁tense	-15431
▁utterly	-15432
▁Pas	-15433
▁muscle	-15434
▁Lis	-15435
▁cheese	-15436
▁truths	-15437
▁Shel	-15438
▁Harrison	-15439
▁rò	-15440
▁Lão	-15441
oub	-15442
▁eru	-15443
▁tản	-15444
▁stability	-15445
▁Liz	-15446
▁Mạch	-15447
▁outbreak	-15448
ding	-15449
▁Tig	-15450
▁Nar	-15451
▁Earlier	-15452
▁protective	-15453
▁reactions	-15454
▁thủng	-15455
izations	-15456
▁TQ	-15457
▁layout	-15458
▁cotton	-15459
▁memorial	-15460
▁Side	-15461
▁enjoyment	-15462
▁layers	-15463
▁Yankees	-15464
▁understandable	-15465
▁snapped	-15466
▁Wells	-15467
▁Maj	-15468
▁Abs	-15469
▁editions	-15470
▁rong	-15471
ensively	-15472
▁complexity	-15473
▁highlights	-15474
▁homeless	-15475
apa	-15476
uli	-15477
▁constitution	-15478
▁sooner	-15479
▁Luther	-15480
▁fathers	-15481
▁downs	-15482
▁scre	-15483
ahu	-15484
▁Delhi	-15485
▁Khuyến	-15486
▁DA	-15487
▁accus	-15488
▁awhile	-15489
▁Michel	-15490
▁meters	-15491
▁terrorists	-15492
▁Rena	-15493
▁viewpoint	-15494
▁makeup	-15495
▁cheaper	-15496
▁saga	-15497
▁AG	-15498
▁consistently	-15499
insula	-15500
▁imposed	-15501
▁fo	-15502
▁john	-15503
▁choosing	-15504
bus	-15505
▁bike	-15506
▁composition	-15507
olds	-15508
▁vessel	-15509
▁asleep	-15510
▁Kel	-15511
▁rivers	-15512
▁Sid	-15513
▁cooperation	-15514
▁nhang	-15515
▁chéo	-15516
▁Shanghai	-15517
▁unsuccess	-15518
yes	-15519
▁overd	-15520
▁compound	-15521
ontin	-15522
▁Vườn	-15523
▁releases	-15524
▁ruin	-15525
▁vứt	-15526
vet	-15527
▁Almost	-15528
▁Bin	-15529
▁afterwards	-15530
▁tịnh	-15531
▁likeable	-15532
▁cares	-15533
▁gừng	-15534
▁Nin	-15535
▁reconst	-15536
▁lacks	-15537
▁Juvent	-15538
▁Qatar	-15539
▁obsessed	-15540
▁Blues	-15541
▁Helen	-15542
▁blond	-15543
▁Universal	-15544
EAT	-15545
aky	-15546
eur	-15547
▁Think	-15548
▁Vu	-15549
▁transformation	-15550
▁scenario	-15551
▁Oz	-15552
▁climbed	-15553
▁sole	-15554
cia	-15555
▁imagery	-15556
idding	-15557
▁tub	-15558
▁inject	-15559
ausible	-15560
▁McN	-15561
▁Tạp	-15562
▁VTC	-15563
▁empire	-15564
▁Marcus	-15565
▁Lebanon	-15566
cks	-15567
▁consumption	-15568
wealth	-15569
▁disagree	-15570
▁Left	-15571
▁BB	-15572
▁lụa	-15573
▁whereas	-15574
▁Bright	-15575
▁cúi	-15576
▁nationwide	-15577
▁tatt	-15578
▁Queensland	-15579
▁processing	-15580
▁kiếp	-15581
▁unreal	-15582
▁succ	-15583
▁waist	-15584
viously	-15585
▁reset	-15586
▁Owen	-15587
▁Shadow	-15588
▁fer	-15589
▁Offensive	-15590
▁estimate	-15591
ections	-15592
▁submar	-15593
▁tặc	-15594
▁Gonz	-15595
▁Assist	-15596
ocese	-15597
▁trucks	-15598
▁boundaries	-15599
▁Heaven	-15600
▁veterans	-15601
▁alerts	-15602
▁biological	-15603
▁proves	-15604
▁belongs	-15605
▁replacing	-15606
▁inspire	-15607
[...]
